
/**
  ******************************************************************************
  * @file    network_data.c
  * @author  AST Embedded Analytics Research Platform
  * @date    Thu Apr 28 11:44:04 2022
  * @brief   AI Tool Automatic Code Generator for Embedded NN computing
  ******************************************************************************
  * @attention
  *
  * Copyright (c) 2021 STMicroelectronics.
  * All rights reserved.
  *
  * This software is licensed under terms that can be found in the LICENSE file
  * in the root directory of this software component.
  * If no LICENSE file comes with this software, it is provided AS-IS.
  ******************************************************************************
  */
#include "network_data.h"
#include "ai_platform_interface.h"

AI_API_DECLARE_BEGIN

AI_ALIGNED(32)
const ai_u64 s_network_network_weights_array_u64[ 27482 ] = {
  0x7f0000007fU, 0xb09efd2e6f2e0f9U, 0xe78bc0e281c0ffU, 0xefc2d2e5a5c2f905U,
  0x328f6fe3c00f9f6U, 0x3c262e500e1728f9U, 0x1e2c52444d4e2d31U, 0x7f6f7f656f354266U,
  0x7c454a4c61696a5dU, 0x324444415252667aU, 0x353a3a443e3d4f56U, 0xe217f45134d3b36U,
  0x1e734812413c1242U, 0x711ffef0e0f3717U, 0xd213f0560319fe08U, 0x121235e9c281e6a0U,
  0xccefedf3a8f9eee1U, 0x8afef64803fe14f7U, 0x375e890d5af946e4U, 0x43810061ef3c1985U,
  0xd9072aca1c26b43fU, 0xe8143495db640412U, 0xa07b0df5389067aU, 0x1dceff3b8af97f13U,
  0xbd57f3cfd254eff2U, 0x7ecdd94fd6ce58d8U, 0xd3c472c6c67fb5b6U, 0xd04ee2d55ccdcc5eU,
  0xffd6ac6000038364U, 0x222fcff940c40U, 0x215fbffff96d4U, 0x244780000acf2U,
  0x12faeff5fe81ec02U, 0x818162ef109c9103U, 0x62edbede1bc08fbU, 0xeeedf0dde299affcU,
  0xa3837f7f3d9cab87U, 0x437e92a7fad1f7fU, 0xffd946c9fe8ecb01U, 0xf78894c0db48117U,
  0x1c532f9eadab1e7U, 0xfffffbf500001e25U, 0x5290ffffffceU, 0xffffe1ccfffffffbU,
  0xaed00000e0d2U, 0xfd7f3800fd000001U, 0x1fb07260f00007fU, 0x4fb0ee27f0000f2U,
  0x6fb0cf37f0000ffU, 0x7f41ae11fb00000cU, 0x1281b1ff04000001U, 0x7ff8fb03ff000000U,
  0xfcff04070700007fU, 0xff02040800007fU, 0x7fec25f60a0000fbU, 0x89257f8d2cc20338U,
  0xdd63836ff00007fU, 0xfc04f60f81000005U, 0xff02fcf6f5000081U, 0xe12a027f40b0baU,
  0xfe0cf9e205000081U, 0xffffc6feffffe7e5U, 0xffffecfeffffef09U, 0x991fffff9293U,
  0xffffd89e0000091bU, 0xfffff60bffffc8e1U, 0xfe5fff7fb8dU, 0x46300000a03eU,
  0x4729fffcac84U, 0xfcadde00b7f34d4U, 0x29024cb1ec123bfcU, 0x278926e508197f14U,
  0x81c3fe8134d11c81U, 0x81ab6a46fbdf597fU, 0xf081eddaf181af9fU, 0x16e53048ba741931U,
  0x1a017f5110cbacdeU, 0x7b249ddc813264d4U, 0xfc99b27e81b04491U, 0xcf6581d0d7be4b94U,
  0x4d83a4275e8a2d99U, 0x19bf65133bf3fe69U, 0x152324fffbe1e9fbU, 0xfc47e4127b12ff02U,
  0xeac6f5feaedcd1d6U, 0xeb7f86812bfdfa96U, 0xff97e5015a8f7fe3U, 0x3a70000016bU,
  0x140c0000113cU, 0x9e0100010667U, 0x595400000f33U, 0xffffff0d000058f4U,
  0x1b4affffffa3U, 0x650a00000864U, 0x1872fffffcf5U, 0x30021b1dfd815902U,
  0xe900f410f400038eU, 0xc20200050203f1fbU, 0xc0001afe7f00feffU, 0x7c04fe00ffff0af9U,
  0xfc008105ef00020dU, 0x20d81fafe831a8cU, 0x500021afb00dce9U, 0xfcfffe038102fdfeU,
  0x1000103fd00feffU, 0x4e00ec97582f15f6U, 0xde003cfc380081ccU, 0x101811dfe010409U,
  0xff0001010100ee01U, 0xdc05042c0197cc07U, 0xe100f0fd2d00367fU, 0xe4fffaef03071500U,
  0xed0004fb8100f909U, 0x21ff0502fc030006U, 0x3c007f0ade0000f2U, 0xfb9c04000400c67fU,
  0x30004f31000e2fdU, 0x1b09f5e4a27f2ffdU, 0xbd0032ed9500e6c6U, 0x2811910fb0400e6U,
  0x200fe0efc00e0ffU, 0xfcf832f9fff3ff81U, 0x1000004fe000af9U, 0x2fdfdfc077ff6feU,
  0x2200020afd00ffc4U, 0xf3021d07fcf67f0cU, 0x900f60709000bdeU, 0x14ddb3fefcff18U,
  0xff00010101007f00U, 0x1fffcf0060201U, 0xfb7fff00ff00U, 0x40c7ff4fefe0a0bU,
  0xfe00020101001602U, 0xfc027fdd05feU, 0x100fdf8f90003ffU, 0xfa0319fdfe0ffb81U,
  0x100fbfd01000401U, 0xc01fcf181021dffU, 0xef00016ff300f1e0U, 0xee2551ff07000aU,
  0xff0100008100U, 0xcff08811a03U, 0x30001f70200f8ffU, 0xff00fdff2e00f9ffU,
  0xfe00017ff900fe02U, 0x3fffb00057feffcU, 0xfd0001fdfd0002fcU, 0xf80226e0ff81190cU,
  0xa000510ff00ecebU, 0xfffd03011d010200U, 0x300ff7f000001fdU, 0x7f03f700fefff2U,
  0x100000000001500U, 0xf9faebee007fd3fcU, 0x14003207ff00f0d6U, 0xad03fdfd00022bffU,
  0xb50024087f00fdfaU, 0x5dff01fbfe02040aU, 0x7d007f078f00fd0bU, 0x227b0000350dU,
  0x6e230000107aU, 0x676c00005a24U, 0x2dbf00003e07U, 0xffffb04d000057c7U,
  0xcd8c000010e2U, 0x3fe00000843U, 0xfffff671fffff48fU, 0xc24e00001374U,
  0x1106ffffb3b4U, 0x42ae00000345U, 0x7b6cfffff2b9U, 0x61cffffcaddU,
  0x375b0000168cU, 0x3a3effffe528U, 0xffff7b3200002835U, 0xf5292f0b0afb0100U,
  0xfe0412f00181faf4U, 0x47fedc2f2dbfa2eU, 0xfa0202e9035cf0feU, 0xc224840a00e8d6c9U,
  0xdfe618ac81eef481U, 0x2b12026481fdf62bU, 0x291fe6cb037afc10U, 0x47dc0e0aecf70b09U,
  0xff16df4f6ccbe6e7U, 0xaf00be5020dfdb5U, 0xf5f717f602dfe5fcU, 0x24bcff7150b052fU,
  0xfb032eb10bf0f40aU, 0x2e367f510fa9f351U, 0x5fa05f5f87c3d02U, 0xa07f7f817f817f7fU,
  0x7f867f8167e0657cU, 0x5e2cd0811481ea7fU, 0x7f7f81f3817f7f7fU, 0x7fdb040af0f60296U,
  0x2dd794a3db7f21U, 0x19c69f1a0d0ff8e9U, 0x3dfe7af5032064edU, 0xeecdfa00eefc01faU,
  0xf800d839ebe802feU, 0xccd6feea011614aaU, 0xf6fbfe810717e0ffU, 0xdac70901c5f2f5dcU,
  0xde7fd2821f22090bU, 0x81dde81bfa487fceU, 0xee03f3fe0704e112U, 0x2c02ebfe03f4f82eU,
  0xf4b4f24ef6ecf4fdU, 0xd736150401f4080cU, 0xfbfe0fec01e4cef9U, 0x25c3000059e2U,
  0x17d10000229dU, 0x1100003de9U, 0xeaffffff9cU, 0x666dfffffe05U,
  0xfffffef100002ce2U, 0x31bc00007f5dU, 0x17a500003433U, 0xffffaf1fffffff5aU,
  0x3ff500007ed3U, 0x714e00000020U, 0x62fffffdedU, 0x1109000003caU,
  0x403fffffe2a8U, 0x9f00001688U, 0xa4fffff0eeU, 0x200081cff020108U,
  0x60202fe07010202U, 0x7f00fb00ea02ea00U, 0x104fffb3ef511f9U, 0x7ffcf3f90ccc1107U,
  0xeacef100960bebcdU, 0xf2000302eafd0902U, 0x4bd6f0f030701f5U, 0xf9d209fad71107d4U,
  0x10047f1003f10806U, 0xfa04fb00fe9513ffU, 0x9090a0e0a0b1c09U, 0x8103f108fa6025ebU,
  0xebec0b08fd02500eU, 0x103efff0601f706U, 0x7121d01fefae501U, 0xbc0f120afa707edfU,
  0xe10a0e21eff67ffcU, 0xeafee60e05f6e617U, 0x2c17be1409ebfa12U, 0xff0a01010101feecU,
  0x200002fd00ff0303U, 0x507fe0004fbfd07U, 0x6060cfefef97f01U, 0x7f9dcfffdfd02f4U,
  0x2010707e2020c20U, 0xfb00027ffc0603feU, 0xebf9030301fb01fcU, 0xe5ff0102f9085f00U,
  0xea7f04fe570529deU, 0xfe02db01f4030d05U, 0x1f14e7fbff0b29e6U, 0xe31304f20f24fc28U,
  0x7f07f90604fe0405U, 0xd600f201c1ff2bfeU, 0x506fb0425142405U, 0x103010001fffdf0U,
  0xfff00ff0001fd01U, 0x700fe0003fcff02U, 0x10107fe02f67f05U, 0x4ff640107d2d561U,
  0x157fff0e14faebf9U, 0xf902dc02f30fddfeU, 0xfe8bf505e10450f4U, 0xf77ffc0420ff00f8U,
  0x500ce7fe0ca8fdf7U, 0xf11bf902fc201533U, 0xede8e5e2f3feeedcU, 0x1400fef8f2127b3cU,
  0x4ef402fb22ed85b7U, 0x9fceefd0006f003U, 0x813b3b02f9ff07f7U, 0x500f4fdfb246a2aU,
  0x22ed0305ea02812cU, 0x102f8fbfefc0204U, 0x212d605000502faU, 0x7fff2ddf8fb0406U,
  0xe80400060cfe0109U, 0xd904f5fe89fe7fffU, 0xf903fa09fcfc22b5U, 0x2015af1fb0a0e81U,
  0x21b90305f5ff11fcU, 0xe5043300ed061802U, 0xe8f0f0fe140bd2c5U, 0x11b01fe050404f6U,
  0xd6fb05edfaf402faU, 0x77f02fdfcf2f695U, 0x30703d205fced0dU, 0x2a0d10080af0f6f7U,
  0x5e01030212ee0237U, 0xf4f6fc03030bfff4U, 0x7e707f03fe2002efU, 0xdc20e03cfe3f527U,
  0xfdfc7f0604f5ee04U, 0xf07fbfb0c99dce2U, 0xfbef0f0ffc11f81aU, 0x2401130608f5010fU,
  0x700402f90be4fd3fU, 0xeef7fb02f204fef7U, 0x7f707dff001d17e7U, 0xf603ee0413fee2ccU,
  0x359afb0879f3e2f6U, 0x2f953ff2f0c85f4U, 0xcfdff201811ac756U, 0x403f2410016ede0U,
  0xcffe0603fdf4ecf7U, 0x53ffff007f0263faU, 0x10f80a710bd1d3U, 0x1060d020600030fU,
  0x21ff05f306ea0208U, 0xf3ebfcfefef8ff01U, 0x100c16fb0e1d8109U, 0xfe02ffd70000fc0dU,
  0x60002050701fdfdU, 0xd4fffd020500e703U, 0xfdfd01013e070081U, 0xfdfc0154010004f4U,
  0xcdfdfb02e9f7fd08U, 0x100101fdcafdc2f9U, 0x1f8fa0a2a0c1081U, 0x3fb0815030103f3U,
  0xfc04fb010302ff02U, 0x306ff028bfd1afdU, 0xfd03ff0381062d6eU, 0xff240cf917fa1260U,
  0x7f04eeeffc180e14U, 0x55ecfdff1003e4f5U, 0x2fa14022d36df3eU, 0xf5f5200509071830U,
  0xbe15fb07f60204ffU, 0x8fed50227098100U, 0x1110e201aa0d0648U, 0x3f303fffa0606f5U,
  0xb7f8ee81fa3c01fbU, 0x161c05070002f07eU, 0x50b0a970a08f213U, 0xfe17ff00f2fffef8U,
  0xf7fff9f5feeffff7U, 0xfd8101ffffddfd1cU, 0xfefffafbfcf3fdfeU, 0xfb81fe01ef020202U,
  0x150309f604f901fdU, 0x339fd0301a0051dU, 0xfaf9f3edfe0705f8U, 0xe2fa1e09fde2b843U,
  0xf6cd02f94704f87fU, 0xfa01dc0b0d00ff00U, 0xf9a9bdf8d9f007d5U, 0x2e4f00001504U,
  0xffffca97000010e6U, 0xffffff96000028acU, 0xffff9279fffffdbeU, 0x2153ffffcc6eU,
  0x1597ffffc779U, 0x52a00006b29U, 0x3c90000039dbU, 0xfffff71000006131U,
  0x29d8000023f3U, 0xffffc1d800003684U, 0x1fa700008cbeU, 0x1a8700000dd0U,
  0xfffff2f5ffffa1fbU, 0x6a1e00005846U, 0x6371000075a4U, 0xcde1aecfb342ccceU,
  0xc4bc49d1c63b4944U, 0x449b3d3ec52f62caU, 0xc0b6d539b966d03dU, 0xb2b525a4a452b9b3U,
  0xaead4eb0b44e4353U, 0x57814456614d0bb0U, 0xb2b2ba51a777c555U, 0xd8e538d0db1ddfe1U,
  0xdbe315e8e41dfc1bU, 0x21c516283724f8e0U, 0xe5e0ea24df2dec2bU, 0xa1b281b3946ca9aaU,
  0xba986bb697527f5fU, 0x60216f65ba4f7fa6U, 0x9588b65da6749c5fU, 0x81812781817f8181U,
  0x81817f81817f757fU, 0x7f107f7f7f7f1481U, 0x8181817f817f817fU, 0xc9e453c5cb32bdc3U,
  0xb6d82bcfd53c003aU, 0x33ef2b334940f6cfU, 0xd6cfc935c42bd039U, 0xc7d6c3d7cf32d7d7U,
  0xe8d231ddc6223b2aU, 0x25683833d72b45d2U, 0xc9c4d42fe125cb2fU, 0xbcdd0ec6c43eb4c2U,
  0xc2c941bebc44383eU, 0x33714136444205beU, 0xc2c4ac3dca20b73eU, 0xebf728eae720d7e1U,
  0xd5f415e8ea26021dU, 0x1228140c192200e9U, 0xf0f2d517e204e417U, 0x6c85000233deU,
  0xb447000015ebU, 0xfffffff00000f9bdU, 0xcb6200005893U, 0xffff9445000002d0U,
  0x1073a000003c8U, 0x356900010a50U, 0xee6c00010ec0U, 0xfffffa180001b22bU,
  0xffffd4ea0000185aU, 0xb7e000006baU, 0x2cdffffff01U, 0x174cf000050c3U,
  0xcd83000009aeU, 0x19a94ffffcc53U, 0xeed10001900fU, 0xf50f0820e10de5f9U,
  0x2765140a00fefc03U, 0xe0e781b91ff644ffU, 0x140600024cd820f8U, 0x1f8030105fa00U,
  0xfdfd0201f40081fdU, 0x1ff000305fe04f3U, 0xfd0c18030001fcfeU, 0xf5fb080cfdf401eeU,
  0xfde90104cc077ff6U, 0xfb00f6f4f4ccfce6U, 0x64d28021001fdfbU, 0x48031f1d7ff1e7ffU,
  0x80d120cf3e2f50dU, 0xff20810d10bbbfcU, 0xb60000faeafefd09U, 0xff11337fa404d18bU,
  0x2766fb22c1fbef22U, 0xd0e9d8e839066301U, 0x62d8c8e821c8358dU, 0xfef7ff0af8fbfe0fU,
  0x1cd0e08fffc020bU, 0x8d06e3f7030204fdU, 0xf903fa087f15U, 0xff01f8f60bf900faU,
  0x4fffbfc1efe81fbU, 0xf9fcfafdfafee6faU, 0xfd130b0002e807faU, 0xf905fc1102f6039dU,
  0xfe01010117f77f02U, 0xfcf600eef0efea05U, 0xf8f41011f9fb005fU, 0xc07f9e9081a12eeU,
  0x4f6e6f2cdf4fdfbU, 0xf91cfdf7812a9af6U, 0x14d105100500fdU, 0x201ff00030e0203U,
  0x5fe01ffd30011fdU, 0xff03030002ebfae0U, 0xfb7f0af9010d0204U, 0xf9fc03000301fbfdU,
  0xff0302fc000600feU, 0x4f701cdfb7ffeU, 0x5f9ff0407070003U, 0xf9fb03fffcc7fd02U,
  0xfffd02ffcc06edf9U, 0xfb06fe0101e40421U, 0x7fe715ff1506ffU, 0xc408f4efe5fbfa06U,
  0xdf262dea1429f924U, 0x8118aee732fb30ffU, 0xb807050845226dfbU, 0xec0426f60d003d13U,
  0xd60abcb2f903fd17U, 0x1c06f8068100b802U, 0xbbfff9fc1527df1eU, 0x1f70b07f00affe7U,
  0xfa101909fb0df9e9U, 0xaccab6d40eff301eU, 0x51b00e225815e02U, 0x81efff0802f6ebd4U,
  0x3c09eefb0cbdfc1aU, 0xfb120d5df4070a01U, 0xd20402013d0309d9U, 0x106fc02f8d50503U,
  0xfffffe01a3fd28ffU, 0x6010602ffe9fba1U, 0x37f27e1f904fc02U, 0xcd06fc03fefb0b09U,
  0x7f0300f8f79cff0dU, 0x5ede62ef5fdfa00U, 0xcafdfeff490a150cU, 0xeffdef22e6fddbfdU,
  0x113271df002ed06U, 0xf8fdf4007ff43b00U, 0xff7ecf5010b07ecU, 0x80bfefa017f0314U,
  0x8f508023bf4eef8U, 0xfe0200f20051fc07U, 0xf5c9fe010e04ff10U, 0xe025e1d17f151abfU,
  0xea281618bda7fc03U, 0x10306b3fd170102U, 0xbffcf4fac109f3bfU, 0xfe010c22fc010082U,
  0x6e8f901ed0cfaeaU, 0xf726fff4ebfae902U, 0x9f01af1fc2dfb7fU, 0xe7f8be1515fee2ffU,
  0xf417dce7f305f40aU, 0xfc28f3005a0a8109U, 0xf6fef6060a22fe03U, 0xfefdf00003010207U,
  0x21209ec04fa04U, 0x19f703fc01070b28U, 0xf5fcde7f03eaea02U, 0x8c07f926f5fafaf3U,
  0x7cefedfe0681ea10U, 0xbef0b5c06ea0be2U, 0xcceddc123a100e0aU, 0x100fcfaff020000U,
  0xfffc00ff00ff7ff8U, 0x101fd00fdfffc02U, 0xff07fd04f201feU, 0x5efb161eb900e6e9U,
  0x81531cfbe27af102U, 0xc0f1b1a575115912U, 0x40fafcedfebe2adaU, 0x302fe00041d02fbU,
  0x3ffff0154fcf202U, 0xfefefbfd011f0111U, 0x38121f306f9ff02U, 0x19f5ee02f417e52dU,
  0x1f4ffedf2edeffbU, 0x362a34d805eafd10U, 0xdcfc17f21aea7f1fU, 0xf80301fafbfa0eU,
  0xfffd0503d20311feU, 0xbfd070608fb0d81U, 0xfcee6ef7fbfaf600U, 0x100cf7e4eb2dfb81U,
  0x5d5fd0dbd1da7caU, 0xec1efd1a36333ff5U, 0x420ddbef3939071eU, 0x9d0dec35dd21fa46U,
  0x49e8edf9c6d105e7U, 0x610f6497f08e3f1U, 0xe1f8d8051e141a35U, 0x2eed08e2f9fe03e2U,
  0x9d0f00fa0b7f0409U, 0xe1220fd7f20ffa01U, 0x21050005f81203d8U, 0x84f6f4fdec18fb1dU,
  0x8106fac1db3ce6c9U, 0x1ae7d42add07ec06U, 0x9403f4dd1e07f13cU, 0xcd7ff1092ae0f0d2U,
  0xd714d8e2302603f6U, 0xe9061421f5ed04ffU, 0x4effa2801f519caU, 0xc32df0db16012312U,
  0xe62258011322ed2eU, 0x85228ad120df3f04U, 0xa106f70b5aec7f32U, 0xebf8274fdafcdf18U,
  0xccedec02d6fee910U, 0xf3512d112c4c36e1U, 0x25a8b806e87ffb08U, 0x3fefcfdff10fdfcU,
  0x1010001cafefafcU, 0x2fffe010205ff7fU, 0x2cd169fefffffdU, 0x2fef302fdfffbfcU,
  0xfdfc02fef70381e9U, 0xfd09f9f80dfa09fcU, 0xfdf1dff9fb2d0104U, 0x2df5254c38e290daU,
  0x7faeecd7eb2e09ceU, 0x202106ddc211e2fcU, 0xbbf0eee9232ae8ffU, 0xf3263530a6e82320U,
  0xe96103e111e808ecU, 0x60f881c6f8e30303U, 0xdff9f3f83b32a1fcU, 0xe3f90c15e50cf60cU,
  0xd6fd240b03170600U, 0x2c0e1d0942fa7ff1U, 0xe9eed90dee37ca02U, 0xd6042020e228f921U,
  0xca032f12d2171701U, 0x3f19250651047ffbU, 0xdef2d736ee5daf14U, 0xa18ebed21f32dddU,
  0x7cfcbfd0de5fbe3U, 0x7f017c39b923b111U, 0xdf92406c70885daU, 0xb9fa157fd52790fbU,
  0xd429b3e7d197fd01U, 0xe80000a01e201c05U, 0xd12ebee94b805ffU, 0xfa05ff07f7dcfe09U,
  0xfcfb0601e4031effU, 0x30afe0000bffbedU, 0x7f05eeff1cfe08U, 0x35f6b69650fa10bdU,
  0x102b15052ff9e4fdU, 0x28fc7d8c7a89420U, 0xe06441d61c8100d8U, 0x1fdba290df9ed0aU,
  0xfa0bfd01da0381fbU, 0x21000072f120f0aU, 0xaebd6f5f223fc06U, 0x13fdffe50f010e08U,
  0x5ebe7f3f6ea0608U, 0x30133907c10881fdU, 0xf1fefc06e127ce06U, 0xeaf7ece8f00510f4U,
  0xe39c091614be1081U, 0xee4c05c9f8e90502U, 0x601f706ec6ff9f3U, 0x2ee03e9f58b0111U,
  0x2f60505ebf51affU, 0x8f605f90d7f100cU, 0xefc01fd0b00fa04U, 0x6f0905ee09031912U,
  0xca1b0ff6fa2d0200U, 0xed02e281f9fff3fbU, 0x5fdf603de10fd09U, 0xc09cca0ff48f4e8U,
  0x2dceff9c74d7f97U, 0xfcecf64738fc2c13U, 0x4011ef283ec01bafU, 0x918e8c60efcddf3U,
  0x10f47f5608f3fbf6U, 0x7f7fff50bfd17faU, 0xcd04ff0af902fcfeU, 0x79fe15bb240d0911U,
  0x81f70bf6e96b07f0U, 0x50f05bed408dbf2U, 0x19f2e6fcc01be314U, 0x1901faf3090505ecU,
  0xfc81fa02050401f3U, 0xf3182e230003fd02U, 0x1020401cb051efbU, 0x601f50b00ec08e0U,
  0x2050201e4fb81f6U, 0xff06fd0806fefd18U, 0xff5bff0ef601040cU, 0xea0ab0f311effe06U,
  0xf4fa35167f1df0fcU, 0x4c001f1801d8eccfU, 0xdf43c6bcfbdbb704U, 0x1fe0e04fbf50000U,
  0x2fffd25fae905U, 0xfb050301fd06007fU, 0x7c0f1f9110008U, 0x4fddff30dfa0c19U,
  0xf2daf0f514f90d0dU, 0x4e436e1fd20c81e8U, 0xe802d423ca63a91eU, 0xf6ee16fff5161decU,
  0xf1dbff03e8f67fdeU, 0xf80505f603e50ff9U, 0xa02f4070f0e04efU, 0x120d3305eb38082cU,
  0x1219f9fbaaf87f23U, 0x3d0400f64708efU, 0x910beca056cf7ecU, 0x3f1f001010157U,
  0x7ff0500f60cf6efU, 0x6e204ff03fefafeU, 0xf202f0f5f0e50081U, 0xeaff1725daf4e1f4U,
  0xf2f91f1cf813f5f1U, 0xfcff01037a0b7f13U, 0x18f71507f90805f6U, 0x8494ffff78afU,
  0xffffeb0c000059f8U, 0xffffb79cfffff51cU, 0x2d2c00007411U, 0x1d180000c552U,
  0x69dcfffffb60U, 0x90f2ffffb7ebU, 0x3fef000039baU, 0xffff9e4a000096b8U,
  0xffffaa0200002a98U, 0x3ddd000101c7U, 0x3ac600011bc8U, 0x17a00007d73U,
  0x330f000011a4U, 0x7319ffff80d2U, 0x2ae70000f8c7U, 0x163a4000029a8U,
  0x34fd0000523dU, 0xffffff9e00009fd8U, 0xffffde1900007dacU, 0xa11100007608U,
  0xba220000f170U, 0x404100013506U, 0xa3b40000b79aU, 0xa8dd00007ff8U,
  0xffffde12fffff70cU, 0x48fa000027d1U, 0x65ec000084deU, 0xa1c500008891U,
  0xab5dffffd535U, 0x6061ffffe24bU, 0x340a0000588fU, 0x4f7f1e1112a12f4U,
  0x4ea2817fcf7f5feU, 0xe8ffe306112ef404U, 0xa5f8e9e02d7f047fU, 0x3f01045becee0cfcU,
  0xec4702ed940601ccU, 0x87c04121309ead5U, 0xd820fefded0bf818U, 0xfe1ada14227fdcf3U,
  0xdde3240aebf7e2f8U, 0x1b019e3029cd0e1aU, 0x320802df7fd1fbc7U, 0x3dea171a8bab10e3U,
  0x14151cd42011dba1U, 0xae81c8d0f22deefbU, 0xc2d71a2c7fdbfc7fU, 0x6f6f9e10f0c0ffaU,
  0x1101ff131cf9ff06U, 0xf20503fafbf2ede9U, 0xfafafbfe10db00a7U, 0xb1f9e4cf111bfe0fU,
  0x98000d49000af8U, 0x10eb030905f1fae5U, 0xf304f7fde907fb0eU, 0xfa17d31141d8f812U,
  0xdb007f01ef00e415U, 0x241e37361f721820U, 0x281520aed799f0dbU, 0x1bdb3448adbf1ce7U,
  0x81a416c78119d9b0U, 0xebaccfcaea2ae0f2U, 0x7f66080fbbd50ae3U, 0x8160817f7f898a7fU,
  0x817f4f7f966f817fU, 0x7f817f7f7f817f58U, 0x7f7f7f81921e9322U, 0x7f7f5a8181817f81U,
  0x7e7f7f81e8817f81U, 0x815c8181817f817fU, 0x35817f7f2f817f90U, 0xd8115f0f5f97fe8U,
  0xee601dc7f7f25ddU, 0xf007f6f6e517e681U, 0xcaf4e9e3f3f47f10U, 0xa7e081e4d7d4ec02U,
  0xfe20e8017629c8cfU, 0x819f9fc1ede09e2U, 0x3710f2f6b0eee9f0U, 0x6fcfcea09fefbf2U,
  0xef2f50f04fa06faU, 0xe9f8f4f9e40ce801U, 0x2002e5edfbdc039bU, 0x7fdfdd903f4020dU,
  0xf6dffaf4f10307edU, 0xd4f7080cf5fbe5U, 0xccc4f7fd010cf4fdU, 0x50703f7f1f80dd6U,
  0xad70cdde7e416dfU, 0xe50af2fbede3ee0dU, 0x98e4eae3f33dea25U, 0x20f60cd3f7eee8feU,
  0xad4f905e322c9dfU, 0x21216131be60ae2U, 0xbc43eefe4fefdefbU, 0x2fef0ef13f8fa01U,
  0xb04f30813e2ee0dU, 0x20102fdfff4ffefU, 0x1c07fafffc0e1245U, 0x11f6e3500a0f0911U,
  0x42d09fe25fa11ffU, 0x309e8ff0704f3f4U, 0xf8fafcf1ef0702feU, 0x14200002c5dU,
  0xffffd17f00000073U, 0x7634ffffef1aU, 0x402e0000080eU, 0x37b900000807U,
  0x3200000e9bU, 0x115500000002U, 0x5c89000023dcU, 0x15cb00000170U,
  0xffffff8c0000053fU, 0xfffff448fffff14aU, 0xffffef5300003afcU, 0x44d0000388cU,
  0xffffff21ffffffe6U, 0xfffff5ab00009270U, 0x6c79ffffec42U, 0x36a00002bc6U,
  0xb6510000846cU, 0x7000000302U, 0xfffffe3f00001024U, 0x5f5000122cbU,
  0xffffffee00000924U, 0xffffcf4e00009f11U, 0xd4fffff833U, 0x7bfb0000340fU,
  0x542ffffffc1fU, 0x630500008783U, 0x2a0e000002b7U, 0xcd3000000edU,
  0x38ba00006f4dU, 0xffffe8ddffffef8bU, 0x2dbb000002a0U, 0x15dffad0e0fdf60aU,
  0xd1092b470b35148cU, 0x20fbed28f826cd06U, 0xe00912f1ff270e0dU, 0xfcc6fbf7acf027e2U,
  0xe10ceef419c27f0eU, 0xe13d03103ef2fed5U, 0x9022b03340452faU, 0xfa8110eb01f214feU,
  0xf62aed10dff50052U, 0x51cf14400de0fe9U, 0xf3fc08f7fb068710U, 0xf3e6de021107eb10U,
  0x90ffe1ff816fa10U, 0xeef8010309ecfd22U, 0x3806f7f80cfc0b0bU, 0x7031b7df31103daU,
  0x30dceafff21002d5U, 0x171410f0f71811fcU, 0x93b0ad50507fa00U, 0x2ad2f4014cf78134U,
  0xfefcfcd5ee040013U, 0xecd8ffe5e8f7ee04U, 0x4eaf006070442fdU, 0x7fef0ae5f5f21123U,
  0x1131fff1f724fcfcU, 0xbcbe61a0709ef00U, 0xd6a90e0bf4f3d90cU, 0xef05f81df1effcf3U,
  0xeefff0cfc26f0f8U, 0x3fbf6ccf80c020dU, 0x11e119091f0317edU, 0x8001a03eafbf7fbU,
  0xfefbe1f502020611U, 0x9f1eefcf2fdfbfbU, 0xfde300fe1c2bf3bdU, 0xa81031a031a0ffbU,
  0xe322edf000e62f04U, 0x62e0115f7fb12f2U, 0xd01205fc9f090c22U, 0xc02f407dbf7fb27U,
  0x713d1f6fa1cfac8U, 0xfce71c0c142b10f9U, 0xd07fff5f8fff8e6U, 0x8fc00f2c81caa05U,
  0xfcf503fc3bf2fb11U, 0x16fc0bf2f40fed81U, 0x17fceaffd3051602U, 0xcfcffd3e5e7eaebU,
  0xe30009ddfefafd04U, 0xf5f4fcf3fd01d4f2U, 0xeafefcfafbfaf177U, 0xd69ff6f5b127c7eaU,
  0xe4fdfad4f2b04af0U, 0xdd04f90534eb42f2U, 0x390df7147ff6070fU, 0x203ff07fb0407efU,
  0x308010803000216U, 0x7ffcfb07f5fffaf6U, 0x90add0107ff0100U, 0xf7031405fbedff00U,
  0x1ff0afffef10705U, 0xfefa0aeffe000501U, 0x20404f1020fd5faU, 0x48f6faf4f9090000U,
  0xb0a00060502e319U, 0xec070503e8fe0705U, 0x73157ff1200fe00U, 0xfb1bfd06fd0c0108U,
  0x201ff0003f81105U, 0xfcfe0046f8d90c05U, 0x709d8e1fa7f0906U, 0xd4071fff1c0714f1U,
  0x36310ec8030afc43U, 0xea81ef700fe80001U, 0xae6f7fdfd120700U, 0xd6010f03061ccd46U,
  0xd407fd45150b0429U, 0x12e8120b0201f124U, 0xe7aee9ecddf624fdU, 0xf6010807000e02c4U,
  0x44181a06000a0421U, 0xeed8053bf8068100U, 0xc3d5041d11d902dfU, 0xf21801000a0b0dd6U,
  0xf9f9fad404f602f8U, 0xe546fa1eaaf8e743U, 0xf7fe02fdecfaf410U, 0x160406e40c0b00d4U,
  0xc00a160502080238U, 0xf7050ce2fcff6601U, 0x431dfe19123104f6U, 0x50e0204fefed92dU,
  0xfe08f7510307f808U, 0xe2e805d87ffa1737U, 0xfbff06fffffb0f16U, 0x200119b2fafb072fU,
  0x4b43001209010911U, 0xf4f0facbfb088a07U, 0xc51f03f9044900e4U, 0x21120b00de09f681U,
  0xfdf7fc4a25e815f5U, 0x150302dabaff2aceU, 0xf3f61d03e8f8fbfdU, 0xf4130e06fc08a304U,
  0xea0ae1ef0ba90a40U, 0x10440155fafc0981U, 0x16f6f603fc097216U, 0x1f49ed0cf11c00fcU,
  0xec07ef17faf11411U, 0x5f20cf90cfc14f4U, 0x609fe040e001202U, 0xf7f7ff01ff00d9fdU,
  0xf2f3fb1365fdf30aU, 0x7ff7faf0ef00fe45U, 0xfefc080c60f100e8U, 0x1f66cfefaf607f8U,
  0xf9fc0dfe0cf40502U, 0xfff11c05020bf7edU, 0xfaede80eef2dd5f3U, 0xd0901cd010c14a6U,
  0xc98cd0c5f70e12ebU, 0xfef50d09e30091faU, 0x1f703fa20fb0700U, 0x2140015a3f8e0c8U,
  0x419f8e6e2a065f2U, 0xfafb15f17f0009a2U, 0x34f9193016080921U, 0x2ff060300f9fd03U,
  0x3fcffff00019cfbU, 0x50601f3da00fefaU, 0xfff6e8ff0303fd07U, 0x30300fdf80403U,
  0x2ff7f05fefa06fcU, 0xfa02fc0902f7f705U, 0x606031002eefdfdU, 0x10802fdff060102U,
  0xfa06f3fa03f8f3f2U, 0x260408fae3fbfe02U, 0x1fe7e04fdfdfc01U, 0xff2003fef8e3fdfeU,
  0xfdae03fc05fafeU, 0xf0fe061e05f5fcffU, 0xffffeecf0c7feefbU, 0xf5f201ebfe06ee08U,
  0x70e0cf8fd06ade5U, 0x7f00eee1a7f9ffd8U, 0xe58f0211fcfd16U, 0xf9ef59fc14eb0a05U,
  0x9f7f512fdf31b06U, 0xff00090e0003f11fU, 0x1202d211f6a9bce1U, 0xdcfa37da3fe92358U,
  0x18de751e09f1e42aU, 0xf11a1ba323f4440bU, 0xeda3db0ae5f1fe3eU, 0x29020fe23247061eU,
  0xbe621c608093181U, 0x51f22514b6e655f7U, 0x2532bddf13eae7f2U, 0x9902cffa0e030f06U,
  0xcf209eeedf6f22aU, 0xa91bf1ef1be50cf3U, 0x78bf00b0a03fee6U, 0x103ecf2eaf4cd09U,
  0xf9f71212f8e8f9ddU, 0x4ef92bd3f8ff0604U, 0xfff81c10718f204U, 0x54fd05001100f506U,
  0xfd01f7fafe077f07U, 0x11f706f911ff07fdU, 0x234eb0bfb0001ffU, 0xf7480ffd0af402fdU,
  0xfdf7abf302000612U, 0xfa03f859f7df2108U, 0x2fdca02f3dd0c0dU, 0xfbfae401f5ed043aU,
  0xec7ff20804f7f9d6U, 0xef17eaf70cf71d04U, 0xc07f9f8f0f7031eU, 0xaf802efe20df1ebU,
  0x4f20bf90c1af2eeU, 0x2eed03fae00008e5U, 0x18f9f6ea68f4e202U, 0xbdf07f6f80102fcU,
  0x10fefd0115010ff0U, 0x60b03002107f611U, 0x80a07fc160b0001U, 0x103ff1305ef0c0aU,
  0xfc0efbf7010402feU, 0xfd0d05f4ff8103fdU, 0xfe053ceee6e50122U, 0x12f4faea1402f005U,
  0xe7f404ed00071528U, 0xe4ed040be200f5fdU, 0xf912f2f9fddc027fU, 0x71afef1cf0be5e9U,
  0xfff3f0ecebdd2900U, 0xeafaf4de13000e05U, 0x3e030b096afaeef0U, 0xff1dffbb13df810cU,
  0xf54f0fffe1dae221U, 0x1e32e52012ec04fcU, 0x19edfff8effc3515U, 0x3229e1e80ef3dbefU,
  0xbde30407001be108U, 0xea0eea07fe031923U, 0x18f6f0f007fb1200U, 0x3fa0ffef412f7edU,
  0xfa16f1f4f0fb01c5U, 0x2c0606e0e7f7e2f9U, 0x22f5f614fefde3U, 0xe07f8fff802e7fcU,
  0x4f90ef1fdf017f9U, 0xf8e8116027e01b0cU, 0x1077f15f3f6360dU, 0xfe12d6f102dc0a28U,
  0xe92eacdd0410f400U, 0xedf8eef5010e2a02U, 0x8fa0018ebf6fbd4U, 0x217071c810ff0fdU,
  0x7fb0aebf6fc06cbU, 0x4a0beee702061b0eU, 0xf00402f2e7fb01eaU, 0x75fbf5dd0212db06U,
  0xf406dee60ced8d22U, 0xf170f108ef3f412U, 0xd3426101df804eeU, 0xfa5714ef06e202f4U,
  0xf9f931f40600010fU, 0xf5f6fc7f114c4b02U, 0xfd8309e3d9f6e3U, 0xc0000e305270733U,
  0x250de9be0bf20df9U, 0xd9202a8127e7f10fU, 0xeebf5f912fff709U, 0x181c0920d50ffb14U,
  0x1a15070502f21debU, 0xfa07f431fa24a70fU, 0xa200409f0f5fa19U, 0xe9f832dd111df3d8U,
  0xfde11428f2e5f67fU, 0x21f01103eba019f3U, 0xefd809f31110fee8U, 0xfd05f30736042f11U,
  0xf207f130c9080729U, 0x8f101922f5f6f10aU, 0xc0430fa2f130c07U, 0xfef90104fafff200U,
  0xf203e9f9fb59017fU, 0xfe5302fdf00a01faU, 0xfee5fbf80003fe01U, 0x705fc0108fd01f3U,
  0x1403f2fd07f81d03U, 0xfe09fe1703f90defU, 0xfb0504fffbfff104U, 0xc3e030dd2a3cc0baU,
  0xee0f4916c3fae253U, 0x26cd140013cf05caU, 0xf9d10ef03af3f4f0U, 0xe213c6e536efc60cU,
  0xdcd3e51abe11df4bU, 0x81e2182906f1c949U, 0x1ef02decf8037829U, 0xd0a0bf3f71106c4U,
  0x40e95ef2006ef851U, 0xd6811ef50c562ff6U, 0xfae7f8150be7f7f6U, 0xf8edfaf93319ce3aU,
  0xedfb080cf42aec0eU, 0xc5e2f0ced404f675U, 0x24f7bddf41fc010cU, 0x29fef9e408f71006U,
  0xf6bf7f58120bf9c5U, 0xdef6e4faf5210c0aU, 0xef3c15fee7f7066fU, 0xf4e40b071d8b30f6U,
  0x6f800fcf114d3eaU, 0xf70f122ee232f2e8U, 0xfe0d3e2f4f17cce5U, 0xe7fb0ec9f2f90024U,
  0xac3bfb0505f70907U, 0xfa09f624ef004806U, 0x38e9fafeffdb02f1U, 0xf5230304f808124dU,
  0x403fab91df713efU, 0x272a042f7ff9f6d4U, 0xf2100c02dffef3faU, 0x2c301f5ecfd1006U,
  0xfa06fff781fe0e09U, 0xfe03fe0fed07fb2aU, 0xfdfff4050705f306U, 0xf6cafff9f70a01faU,
  0xfe0c100903fb1401U, 0xfc050324091600fdU, 0x40211cc01fff1f6U, 0xf1c022f2bea7fe5U,
  0xf2cc142230bc0e2cU, 0xfc60ebe8f965381cU, 0x92cf6fdee2d283aU, 0x27d516510e1ff6eaU,
  0x5d29e6000a0336e9U, 0x154eee0ebd09f116U, 0x561b0df1fedfe7U, 0xeb0515ffff08e61dU,
  0xdb4d0bcde930f300U, 0x23d3ec161cfe1ae5U, 0xead00a0fd9f6f11eU, 0xea4ff30dee03c8dcU,
  0xe51913e2f5648111U, 0xffbf71eeb045d1eU, 0x1ce3f8e10ff65fcaU, 0x20cfe20eb0d0fe9U,
  0x8e11faf5fa01f63eU, 0xf6e311c602f97f00U, 0xdbe1efef1056fe47U, 0x190f0211ff011d36U,
  0x1f513240ae53213U, 0xd872f2067601021fU, 0x9fef6f7f4fedc03U, 0x6fc04f9f7f808f6U,
  0xf21006f4098104bbU, 0xffdcfffaf9fffe09U, 0x21a01f7fbff05feU, 0xfa0c07f5ef02f5f5U,
  0xfbf6fef100ec18ffU, 0x1fdf2f9070205e3U, 0xfb0016f8f6fdfcffU, 0xf77ffcfc07f43d0cU,
  0xc090b0318070409U, 0xdce7030c11ee0f19U, 0x5eb0104faf7d9f3U, 0xf0a1de70709fd04U,
  0xbf5061519ea1407U, 0x15fd14edf811f5f2U, 0xea01dee40af417e8U, 0x81f615e4f1e40e26U,
  0xf63306e1f715fa10U, 0xff0fa1fff0e0801U, 0x30520005f1f5dc2dU, 0xf60df7f109fa1001U,
  0xd330209072ae9fcU, 0x17fafb2a0f021520U, 0x8fade0a1efc13ffU, 0x803c924fde81024U,
  0xef59aadd080607aeU, 0xa07eff8fdfad60dU, 0x27fa05ecf5ffe4U, 0xc1e0bff8110cafbU,
  0x80df5d80dfbf3e8U, 0x68ec04fd24ef2336U, 0xd6012403bbfe04fdU, 0xfe1901f0c7da1b2aU,
  0xed43eddff930ef06U, 0xf3bab5ee2f0906f6U, 0xd9e60ff7c8f3f62bU, 0xe1810102ff05f7f1U,
  0xf0290a1cfafee007U, 0xffdb01f10901b312U, 0xdf4bfcd16011fdbU, 0x8ea0bfbfcfcdf08U,
  0x1ccf4f808ec0ae9U, 0xc1001fbe62cfafeU, 0xe10f5ff031d0281U, 0xe758080702040a05U,
  0x401ecd7090c1411U, 0xe1d0ce3ff0425cfU, 0xdb0401f3a60e56f3U, 0x4fd15000f0d150dU,
  0x5410407f7030048U, 0x1ee7fce00ce133f6U, 0x8e913001415fb86U, 0x13f6f3f91d08f601U,
  0xf0f507f41742a7f5U, 0x100af809d4f3ef41U, 0x81f9f1dac70c0b0dU, 0xfb0581cdf310d90dU,
  0x8f72544ea13f807U, 0xf9dd04390c0034eeU, 0xf9e4f2fe0e0bf72fU, 0xdef2eff9a622fd15U,
  0xf2010c41071e0d5dU, 0xf61bcf16da08e204U, 0x1a1729df10daf40aU, 0xa0206f5fd09f70aU,
  0x61c030214fd811dU, 0x400104fb9a00fe09U, 0x1303c9021e00fe04U, 0xc0901fafefe05U,
  0xfefef6f9fdf40c00U, 0x2fffbe7fff3f70eU, 0x90310def2a2150bU, 0xeaff2ecb0610f8e5U,
  0xfce80020e4f1f97fU, 0x31e6040ffad7e8e8U, 0x9da0fe8170bfcf4U, 0xef1cea0c5802faffU,
  0xf50fee38001bf22eU, 0xbff6014e17fbe601U, 0x10b3cf5e3ff3c0bU, 0x1610e50c077f0311U,
  0xfec0d0ff51e0313U, 0x6d37005040402f7U, 0x5db05e37f2bf629U, 0x9e3fb19e00ce80aU,
  0xf51df715fcfb1bf6U, 0xe728ee07f211e0ceU, 0xfe260df5f70d0679U, 0xeff57fcf91ef4f1U,
  0xf50decea03ff2ce8U, 0x48ed132bf0f70002U, 0xa2b0efb220601f4U, 0xf504070d5c113bf5U,
  0xfcffe02bf5150a03U, 0xb10be24005f0f607U, 0xf9027f232500ff17U, 0x6deb8cf04df0eU,
  0xd57f8d90610fad9U, 0x1114f7da22e8e1fdU, 0x19f6060e04e2f047U, 0xebeafbd232f83100U,
  0xfdebf6aafbfb1453U, 0xb6cc16ef1c2a4d2eU, 0x2c0905e90dfc7ff3U, 0x1f12fef8132d0afeU,
  0x8f5e9f63ce2e27fU, 0xe9200042fe000226U, 0x196df4fb3eea0cddU, 0x15e21d17fd5e0004U,
  0x80a18db0f08e30eU, 0xfff203db012d22f3U, 0xefef5920f2dee318U, 0x89050701f211e2ffU,
  0xfa221610ff14e3e9U, 0xbcf4f10de0ff0204U, 0xfdd058ff1407f816U, 0xf4f0fe0809ea0801U,
  0xf709fb11f6eb0ffcU, 0xc07099eff1eee17U, 0x5017f01f35eedffU, 0x81211adff3e9d428U,
  0x169fbececfbf8fdU, 0x6e0f91205faf7edU, 0xb14efd0bf7012306U, 0xd819f03014080ff3U,
  0xdde41510ea040602U, 0x1fffd1b06f71c44U, 0xb07d7052cf90806U, 0xee0417f5f908ed04U,
  0x110f2f900faed08U, 0x7efd0bfe44f7ecffU, 0x2eb7f02fb01fa0eU, 0x3f8f9f1e4fa00U,
  0x8021511fceb11e3U, 0xfbfdf1fb1322fa09U, 0xa0ce4e903f2c8fcU, 0xe80d1f1cf947fcc4U,
  0xb0ce02526fce557U, 0xae2eff206cf0f21cU, 0xdebeefd3a0701edU, 0x7e8181ace81d213U,
  0x15100a1d14b70fc9U, 0xf5f8f831134c21f8U, 0x15fccae5f1e35416U, 0xfe2f05080ef599ffU,
  0x501fb018104f61cU, 0xfff0010901050323U, 0xbf90301fefd0e04U, 0x71907fdfd02fa04U,
  0xfffd030b08fafb01U, 0x5fffeeefa1601feU, 0xfc02f5f706fd09f6U, 0xb51cdbf242033ef5U,
  0x1ac8c8f122d4ecc6U, 0x2c4609f5fc04020fU, 0x12850f0601df0fdbU, 0x210a1ffec503d60bU,
  0x6ea0f0f1c39c313U, 0xd5dfd77ffaf316daU, 0x5fd13140d290a09U, 0xf615f013d3eb0e1cU,
  0x63609060d04f7e2U, 0xe5f7f3ff0bf9020cU, 0x8eceaf9d710fcb6U, 0xfbec141d2d0e0c03U,
  0x31c0e193032e001U, 0x1104f011f2fafaedU, 0x2ffaf2e381f1e4e1U, 0xfbfd1721f50d06ecU,
  0x100edaf800090117U, 0xafc00f9f804ef00U, 0xff2000dc0cfdfe13U, 0xc0100fb23078115U,
  0xfff9fbf4f908f406U, 0x2f4ff030bfdfa05U, 0xeeed05fedb01250cU, 0x7f140df2f1f9e718U,
  0xe62afff8f5fc08eaU, 0x7090b19fcfd14f7U, 0x15bf080ff6f51b10U, 0xf2fff6f7fff4f802U,
  0xec27fe030118f1f5U, 0xffedffcd11ff0017U, 0x6f618122c0305eeU, 0x7027fdc1309f938U,
  0x2fbe3ed0af90da4U, 0x2418451cef0f0dU, 0x1faedff06fafc18U, 0xe010a09f87c2219U,
  0x604fc50000b1591U, 0x1701a8230215f404U, 0x61c1e0017eb1d06U, 0xffff825500000470U,
  0xffffd7c800007120U, 0x7b3000007e81U, 0x1a17ffffddc0U, 0xffffa159ffffae23U,
  0xfffeff8900008f34U, 0xffff18fb00003633U, 0x85c10000995bU, 0xffffdc4500001de9U,
  0xb65c000042a8U, 0xffff626c00019580U, 0x3c7dffffc3b9U, 0xffff5736ffff7fdeU,
  0xa2e7ffffcc4bU, 0x6fddffff3c85U, 0xffff86ac000028a2U, 0xffffd1de00004a1fU,
  0xffff71d500004c95U, 0xffffee39fffff555U, 0xffffd3bbffff6c3aU, 0xfffffdf300006b3eU,
  0x58e4ffff5252U, 0x3bce00004844U, 0x8d29000043e3U, 0xffff81d300003927U,
  0xffff7e5400005346U, 0xf2bffffafc5U, 0xffff9b560000a323U, 0x11c40000189cU,
  0xa7e7ffffe186U, 0x198800003715U, 0xffff8245ffff7cb3U, 0xbabfb53945b3b9bbU,
  0x4796b64347425644U, 0x42463f90ac73f94dU, 0xc06744469d52f044U, 0xa952beba4d41549cU,
  0xad4f42b15e426154U, 0x4c3fb0b09caa55c4U, 0x56484b4455b5404eU, 0xa09e984d59afa4a7U,
  0x5b939b675a626457U, 0x5b5f62819f6e6260U, 0xa27f5a6e14625a61U, 0xb36ca79a5f53603dU,
  0xa1615b98715c4160U, 0x5e56a39b81955da5U, 0x60575f5b65a05c5bU, 0xccd1d11d27d6cdd7U,
  0x21adc9312a2d2027U, 0x2e2c3bbfda40352bU, 0xd946263e41286134U, 0xe727ccd02b20203fU,
  0xdd2721da302ffe1cU, 0x2726d0d1c6d823d7U, 0x24262e222ed3302dU, 0xaaa9a15d5d939695U,
  0x66849a6461646d5dU, 0x5a615c37977f8163U, 0xa8c05b59816cb760U, 0xaf5fa2a665647081U,
  0x93675f9f655d7f6eU, 0x62578f9648966aaeU, 0x676863606d9d5e67U, 0x8181817f7f818181U,
  0x7f81817f7f7f7f7fU, 0x7f7f7f268173087fU, 0x81b77f7f3e7f607fU, 0x817f81817f7f7f5aU,
  0x817f7f817f7f447fU, 0x7f7f81815f817f81U, 0x7f7f7f7f7f817f7fU, 0xc2c7cb3640c8c1c5U,
  0x34aacf3a393a382fU, 0x3b3d4c0cce3d3334U, 0xcacb34454b307f3cU, 0xb42fabc236312b6dU,
  0xd63436d03341f624U, 0x3b31ccc928db28cdU, 0x2d39353033c44437U, 0xd3dbd9302cd0ced6U,
  0x2fe7d43531322e2cU, 0x26293058d148d32cU, 0xd9cb2625a92ccd36U, 0xee1fdfd9302e30b7U,
  0xc82d24de2830302aU, 0x2b2bd2d617ba2bd7U, 0x2d352a302bdf2e34U, 0xc6c6c94741cacec6U,
  0x3bebd3373b3c3939U, 0x33363f4fca4ec836U, 0xcbb6353a32332545U, 0xb730cacb3e393527U,
  0xc03a3ace2f441233U, 0x3b35d3ce1fa73ac7U, 0x3441353a30cf3c3fU, 0xdfedee1f22e7eeecU,
  0x1bdefb14121a2511U, 0x1419252ee7260314U, 0xecd9122322133d16U, 0xc70fd9eb14110b32U,
  0xe71c1fed141df90eU, 0x1b15ebeb0ee80fe8U, 0x1118181616ea1b1bU, 0x8ba800005e56U,
  0xba90000bd36U, 0xda1d000018efU, 0x127c300009083U, 0x8d5fffffebeU,
  0xffffffe100000125U, 0x32170000008eU, 0x18640000ace5U, 0xfffffcac000010f6U,
  0x1aeed0000286dU, 0x19a0fffffb1dU, 0xffffe0dcfffffd9eU, 0xfffffa0cfffffff0U,
  0x18100000e2eU, 0xffffcf5200002ad4U, 0xd4f700003578U, 0xffffff580000258cU,
  0xffffff55ffffda7fU, 0xa742000038e4U, 0xe56300001f64U, 0xfffff7480000088bU,
  0x84000001a54U, 0xfdc0000e0a2U, 0x1edf000000185U, 0x13990000b306U,
  0x510000e206U, 0x1756d0001ae0eU, 0x192700001312U, 0xffffe6ae000005c4U,
  0xffffce380000328bU, 0xfffff58400001ef4U, 0x4910000326dU, 0xf8ff01fe000202ffU,
  0x2f7fcff010200feU, 0xf901f10202f6037fU, 0x200ee23fef3fffcU, 0xfe01fff9fef6fc00U,
  0xf90002010700fcffU, 0xffebd7f800fe01e4U, 0xfefb01f506fd0bU, 0x35c0927fb05fafdU,
  0x1c0deceaf00516f5U, 0xeef404d9ff101e01U, 0xeffc2d02e0f81808U, 0xec98fc0fed3026f7U,
  0xf600c08108fa0423U, 0x16371403f1faec08U, 0x14070428cc13fb0eU, 0x60003ee05fdfdfcU,
  0x7ff02fcfdfaff81U, 0x4ffc1b03f6fe05e4U, 0xff031b1500130700U, 0xfef2040afef5fa04U,
  0xf2fb0a0905050d00U, 0x36eeafdfa060c37U, 0x806f60221f8ea04U, 0x26efd4fa1ef01810U,
  0x213f12ebf0f247f3U, 0xc3e601c8dab8ec32U, 0x37f5d324a9d803c7U, 0x13f87f26e3d9cfc7U,
  0xad3214d7cbeb89c1U, 0xfa2147d1c4162305U, 0x4afd2fecd400fb34U, 0xfb54301763ea1d15U,
  0x2bfefe0cc10ee918U, 0x111ef4fd121cf00aU, 0xf5f469fdf1fdeee7U, 0x6319e1ff1ddef80cU,
  0x16f6d912e09b0810U, 0x7fe7f3d321da09f5U, 0x1d9011ec210afe0bU, 0xfa08fdeff3020bfdU,
  0xf88f08020205f645U, 0x2306bb06ff02ff7fU, 0x2fde7620305f910U, 0xfaff07edfcee01fdU,
  0x7faf8f6fafa0afbU, 0xefcf1a08f002e9U, 0x2f8fcffedf0e8fcU, 0xf60a46ffde02f5e5U,
  0x1dff0658ebe51e0cU, 0x10d1fdb3df1206eaU, 0xdf1d10beee528d3U, 0xf33d6ee5e500af1U,
  0x40dad5ecd5e34ffbU, 0xdb1400dae47fbcf1U, 0xe1d71554e3e6ea0dU, 0x2e00040703f8fb03U,
  0x3f1ff0afdfd077fU, 0xf6fe05fe15e9faa2U, 0xfef400effdeefbfaU, 0x2fb16091b09fdU,
  0x20f5f8030101f502U, 0x521d0bf707fa29U, 0xe4f2ff001ffbe455U, 0x1309f8f2fa05f9f9U,
  0xe8f2ff031803f7fcU, 0x700fa29e4010deeU, 0xf9c5e7e4012d01f9U, 0xee09f7010af11916U,
  0x4d0bef0f81fd0a0bU, 0xf5f9f02a18e75defU, 0x1fefd09f9ef04f3U, 0x19fb18181618f4c7U,
  0xca25ffebfaf5a6f9U, 0xb8de1eeb3a05fc0eU, 0x1ce556c1d68205f7U, 0x2ed4dfefc9bbfd6U,
  0x65d8f817fa0ad3ecU, 0x11f32995ea3343d1U, 0x7f18c2fe1e1440adU, 0xfd1b1104370981f9U,
  0x8fa210bf203fbf8U, 0xeb090a020bfaeafcU, 0x16f807fef81bf10eU, 0xe3071a0d04fd100fU,
  0x611f910ff38f70dU, 0x9f05fb02fa00eaffU, 0xf5aefcf403fffa04U, 0xf9fa0dfe0afafef7U,
  0x6e90302effbc901U, 0x14fb07fcf103fd0bU, 0x16fc270300fefcf9U, 0xefe9010304edf402U,
  0x1605eb10fa0cf8efU, 0x7f906c5fef7ef06U, 0x8110edf7fef803f2U, 0xdf7ce8b205dbd91aU,
  0x4c10e1ff1a1c2022U, 0x5e1bf3a01f2e5f6U, 0xcbf33bf506141b06U, 0xf87fd02404b0e2f4U,
  0x197081fe0d0dfd47U, 0x11fc1f39fbef3dedU, 0xdd01b525f9fcfa05U, 0xf504040301fafd10U,
  0x3f4fcfefffdfacaU, 0x24073800fc0802e6U, 0x2030ff1feef0202U, 0x904f71c04eb0301U,
  0xee02020605feff01U, 0xfdf3ebf503040c7fU, 0x3fffd06e6090b2dU, 0x1c1813faff1924d8U,
  0x26f83417060cc7f6U, 0x203020a3602f9ebU, 0x1808e60ef706f1f4U, 0xe6212b1d09100708U,
  0xeb18fe02ec05e3edU, 0xfa1404a50901e3efU, 0x8104f6e2be13dd01U, 0x1fbff0efdfb03f8U,
  0xf6f000fcfd05036aU, 0xe204f6fc23e20befU, 0x709f81d01fdfdf5U, 0x3fe0a0012fd0605U,
  0x24f4fc09ff0b01faU, 0xff3a34390e01f80aU, 0xd806f7f23000ef7fU, 0x90605f70305f7e7U,
  0x180cf40a0c18de13U, 0xf0cfb05070ffcfdU, 0x9fdebf912d5fb10U, 0xebf9e80c0918f110U,
  0xcae3e6fc3407f5fcU, 0x11ec13ec0af7fd04U, 0x7f06feea10faff02U, 0xaafaef04020808e9U,
  0xe8f9f800fd081984U, 0x1907b50101f3f221U, 0x1ff0c1a0029000bU, 0xf3f508edfffb08fdU,
  0xf5eff607f30601faU, 0xfe8110f2fcecf2cfU, 0xc0402fbea0917e9U, 0xb020d0af9d109ebU,
  0xfb26050efffcef03U, 0xfcf00af9f3ff08f8U, 0x17043004052203f7U, 0xfd0f03fc16dcf503U,
  0x11defdfbf3ec0cecU, 0xef06e8d11101f8f3U, 0x81eae900ef13d807U, 0x60bff0006fafff2U,
  0xfaff04f9fcf7056fU, 0x11051b04140401f9U, 0x2f7202cfc22fe05U, 0x4e9fa09fc2f0305U,
  0x908f9ebf6f41601U, 0xfb810c1a0902f9f8U, 0xff0b0404d500fffaU, 0xff04ec01f80e0702U,
  0xfe051107ff010601U, 0x22ff0800ff1e01U, 0x20bfcf800ee0904U, 0xfb0607fa051617f8U,
  0xb0104fef7f6e700U, 0x2030cf60afffbf8U, 0xbfa7feff907f903U, 0xf30104f401fdfc00U,
  0x903fffffffe0481U, 0x3d050d07db12ffc8U, 0xf9001bf0000b0b06U, 0x2f6fd0401ef0402U,
  0xe00109fe01ff0505U, 0x40ff3fc01fd051dU, 0xec03ff00fcf30c01U, 0x33ffe6f1211009b9U,
  0xf3ea0003eaf4b6e2U, 0x2d361003210dd927U, 0xfd2c01c0072e2a1bU, 0xcd00d08126e05edU,
  0x6fb25ebdcf43305U, 0x4d3af96f16f31f04U, 0xebf6de09b6f97f14U, 0xfafa0dfd030407fdU,
  0xf1fc020a0914f902U, 0xf80dfc060bf70ef9U, 0x203f801ff18fb05U, 0xfe03f60007f1ed7fU,
  0x50405fc0e0305f9U, 0x2fef81107f0ecfeU, 0xff03f0f7f603f601U, 0x90405190307f8f2U,
  0xdbd7fef9e7f8d70eU, 0x8efcee301ff0400U, 0xf8f3f8ba01a5f312U, 0xfea05ea1beb0df2U,
  0x63ec1b1fd80dea0bU, 0xfe4eca7f1fe11deU, 0x7f07eaf806e037bdU, 0xf806edf7aef47f03U,
  0x50cb303fbfb0308U, 0x5f9fdfce500ef09U, 0x1007fc01f705f400U, 0xf9fa13faf60af508U,
  0xd90301e5e4c4e6f9U, 0x460b110c000d0ef5U, 0xf742120d01da070dU, 0x16fdfc03fe04ff14U,
  0xf8c8fd010000fb81U, 0x920fe0138fbe0U, 0xfa091425fbdffbfaU, 0x709f5fd07ee09fdU,
  0xf9fa010c02fdfe03U, 0x6b5330d00f815a3U, 0xe08fc00f00b03ebU, 0xf808181c052204d1U,
  0x12f20afa0e0803d0U, 0xb031c121ff202b4U, 0x1129a213f87fede4U, 0x131a11f11944e3ffU,
  0xf6fc2f2fe4f607e1U, 0xf517b4f920fe0bf3U, 0x48fec6f0e6fca2cfU, 0x10a13fcfe0204f0U,
  0x30707f91813f60aU, 0xf311fb1331f4ff05U, 0xa13fefd0007f405U, 0xfbf5f404f3ecf9fdU,
  0xc20ffc077ffce800U, 0xfdf50fdd19efc401U, 0xb0413f91303fbfaU, 0xb5283657f62a4003U,
  0x4cbdf90c1a25b56cU, 0x7fa3fd3ff307f8U, 0x1fd392cad9e5f721U, 0xff251adb05a3bcd8U,
  0xcb310ffe3ffce3f9U, 0x19bc6e2dfcc964baU, 0xd2edaff8130d3a2cU, 0xe9fe4b0b3a5712f4U,
  0xfef6fcdb54d5f11aU, 0x895ec12d920d1f5U, 0x4b4ce8d0251006ecU, 0xa722f8fa7f2c96f1U,
  0xf3f3fef2d0da19c8U, 0x38fcf112fb0dbcfaU, 0x15cece38f1fd0df5U, 0xf90ce60ecb09f5ebU,
  0xf00f87fd675f904U, 0xfdf7f90ce7fe1308U, 0x40108f9f2eb0cfcU, 0x22fd0201dd0707f2U,
  0xf3e301f70c24fffcU, 0xd3fa08f906fe0b01U, 0x225e9f1fcfcf801U, 0xc7f90003fef90202U,
  0x30a06fefefafe8eU, 0x460309fdec5d0b22U, 0xff04e31103e701feU, 0xfb01fe07fbf60104U,
  0xe1fe020bf4fd06fcU, 0xfe9dbcf9fc06f527U, 0xf6fe040afaffe27fU, 0xfdec020410f7ff02U,
  0xf4f8f902020207b4U, 0xf001b082108ff02U, 0x4f7f2f7022905f3U, 0xfb01fcfdfd0705ebU,
  0xff0506190309fbfcU, 0x77ffadf0df6010aU, 0x1c01090244fcee0fU, 0xe00fdfefe0800ecU,
  0x80d05050e0908feU, 0xfc01020c0c0401feU, 0xfd09cdf8010e03f5U, 0x100a07080106f801U,
  0xf7fc02ed03080b03U, 0x9f905260e1809ffU, 0x7f04130201071302U, 0xf1fe0606f9fe0402U,
  0xfafd0bfb0d201721U, 0xf40bfcfd0200fef2U, 0x10520506f910ff03U, 0xea031e07fc01ecf4U,
  0xdc0603f0810ffaf6U, 0xa08f60504ba27f7U, 0xff01f3e50200ffeeU, 0xb7f020fa2f1f9dfU,
  0x58bcee0228f9c50eU, 0x2623f425f4274311U, 0x221b33dcc2eb11ceU, 0xdd0204f10623e6e7U,
  0xe910e0f6fc562bf1U, 0xbef3c5e629cadbefU, 0x1e4732e611053af2U, 0xfd09fb1298fbfef3U,
  0xf2f5fef505fdf901U, 0xfdfe10e9ff0ce9f3U, 0x70ef90b0a1e001fU, 0x15f1fa0cf70ef1ffU,
  0xf5f2fe0ff97f0ff5U, 0x630eed02f51df602U, 0xffa2010a03fa0b00U, 0xbfcfdfefefd0204U,
  0x4f402ff02000603U, 0xfd01d9fd00f3007fU, 0xfe01e9480300fe01U, 0xbfdf6fdfb0100U,
  0x1fd0100fdff01U, 0xfcfdec05fe0200f9U, 0x1fdfffefafbf4f1U, 0xf71bfce9f8f110e5U,
  0xe8f103fe0f000c25U, 0x1bf7504c7f1503edU, 0xf3121608f37d0026U, 0x10bc3f7fa750ff9U,
  0xfd2cecba04f70b0bU, 0x5a9cd2e23f1f9c0U, 0x34f1de1cd706e502U, 0xff9030203fdfd06U,
  0x3f704fbfbfa04c4U, 0x6fe3d050af5fe22U, 0xfe05fa27013501ffU, 0x3090406fd1bf804U,
  0xfffe000aff0604fcU, 0x7ff80d04fc090aU, 0xfa03fe083005dd17U, 0x15f306e7d637d751U,
  0xd104f8e9f9ebfed9U, 0xdfe100b381dae3f9U, 0x18f2e408de00fadfU, 0x1eeffd21dce3fbecU,
  0x708f92d2cfeebe9U, 0xf3bbe8f7c344cb14U, 0xfee1cafd20f2c5a0U, 0x334ecf04d06f3f9U,
  0x12e7e3033103ea05U, 0xdd0fefa0e05f0ecU, 0x1cdcdbf832d827e5U, 0xf8f3b8dde91911ebU,
  0xfef43afaf6e07fcbU, 0x33eee527f921d701U, 0xf3c72c4429fd04efU, 0xdef04814eee513f1U,
  0x13d8f37101212cf5U, 0x30e54ce6151f1ce2U, 0xf66341dd1cf0f66eU, 0x2717eff6db7fefbdU,
  0xeff0fec123331c10U, 0xf7e5d69a09ecdfc4U, 0xb1d01e800ede4f2U, 0x18ce0de8e712d622U,
  0x2af4e1127d7f07f1U, 0xf67719fa281afefdU, 0xe1e70dfbf2cc0fd5U, 0xe019050afc3cf7fbU,
  0x21bd0fa0ed2da2aU, 0xd920f4ecf4f4040aU, 0x20d42807e8d5f601U, 0x6f6030311f107faU,
  0x6fd09e50a06eaf8U, 0xf82907fd4c09fbf8U, 0x24172a19f80b0414U, 0xfaee0606d4d6edfcU,
  0x961cef087f05eeebU, 0xa0014dc00fb90feU, 0xf412e0e31e13f9fcU, 0xf2fc080900fcf2f3U,
  0xff15f7fc0209f7caU, 0xfb0cc6070d2404b8U, 0x1fc2ae3fc0007f4U, 0xf7fffb04fd0702fdU,
  0x908010c06fffcfdU, 0xc47fef00faed96U, 0x10401fa22f50db6U, 0xa23247fff0ffbf6U,
  0xf9e415faf1ed29ffU, 0x23db06f5ed090608U, 0x9ef6e205e801d739U, 0x78f5f4001c1affU,
  0xf9ddc028fbf6f15bU, 0xf3001cdefde8fcU, 0xe80e08ee11f22905U, 0x7f3f0f403faf304U,
  0xedfef0eaf3f11909U, 0x2ef0df55a05fd0fU, 0xfecf2ffb120b0903U, 0x7f5f602f0970bf1U,
  0x81faf201eafc05ffU, 0xf9eb032fe2b10610U, 0x613dad548020febU, 0x107fbfb2202f8eeU,
  0x90503e766d80305U, 0xfb10f7f3f105f1feU, 0xff0906f8f5eb03f3U, 0xc0fbef0d7f1707fcU,
  0xf5e5f90219c40708U, 0x30fa04f4100f0c01U, 0x16c6e4f30101f605U, 0xff42f020aea20f2U,
  0x43cc3707f5f8f5feU, 0x23ff7f2be52a0417U, 0xf71c26451402f3fdU, 0xf0fce9ee0daede12U,
  0xfed8ecfef0081a05U, 0x48946e1e022023U, 0xd01c01111e30cc5dU, 0x6fef31e0ef50508U,
  0xfd140d01faf30e28U, 0xfaff751519f9fce3U, 0xfe081938ff6ff4feU, 0x30ff7f9ff6aff00U,
  0xe8ffe5f9f10609fbU, 0x581d4320f0b1517U, 0xe4080214db04fdfbU, 0xfe9a36e4fdecfeccU,
  0x7ffbf0dfced6f902U, 0xf909fc18ff03fa06U, 0xef09e704fd05fe18U, 0xff02efffd9080e08U,
  0xe039d71fe4effb1eU, 0xdc062ae9110eceffU, 0xe7e024c9fb01f7U, 0x12fc0303fc0102f8U,
  0xfd07fdfd0000f17fU, 0xf502eeff171307d4U, 0xfe00f603fee5fff4U, 0xfa040003fefbfffdU,
  0x1e03fe000002ff00U, 0xfc37120dfcfcf938U, 0xe9fd00fc2d01e858U, 0xf0f8e7211ee1fae9U,
  0x170007fd0c0ddc0fU, 0x2df004aff60ce3U, 0xeef8ebece8f1f8cdU, 0xf201e6fe023612d0U,
  0x5c021f0da818e808U, 0xfe2dc0310de5afeU, 0x2227fe0f0f8fa05U, 0x74faf105f2fef8fcU,
  0xc6cf102fe0d03e1U, 0xe805dcf409f2fc0fU, 0xfbf23fda021303ebU, 0xff08f9110e2d030bU,
  0x60cf2f7f3fb090aU, 0xffbb6de0fd0615f0U, 0xcf5070702004e81U, 0xdf328150727ea34U,
  0xd6f4cac2fff1b103U, 0xea62da3d8504fddbU, 0x215a4ce70a60fb7fU, 0xfa09eceed35fd505U,
  0x4d2d4714e807e4d3U, 0xd9e0ca2f3207d2edU, 0xb7001b2d1fdddc1fU, 0xf43d47c4dfe92302U,
  0x6df0ddfe030ff02bU, 0x4d7fa011208f0e1U, 0x97ea41b6ddbc1323U, 0xf736cd050cca0ce9U,
  0xef1cd281f4de0858U, 0x31be118e3fbeef2U, 0xbe2ff3594fcb6cbU, 0xf209f9f53e250dffU,
  0xf3f4fdd47fbaf005U, 0xff0108f8100ceef7U, 0xf1312f031090504U, 0xa0060cff35f7e8ffU,
  0x215fbf4e5c117eeU, 0x3912f32211f729ffU, 0xedbcf6f20b070deaU, 0x600faff00fbf917U,
  0xf307fcf2f8012cf5U, 0xf707c9ee8df9fff4U, 0xfb0913f612d50305U, 0xfa05ff07f6c20211U,
  0xc503fbeafaf50b0aU, 0x260421f7fc0a0aU, 0x81060efae70a32faU, 0xa60a0205f8f806ffU,
  0xaf90003fdfff29cU, 0xfeff470efa7c0dfbU, 0xc04f6bc07f102f5U, 0x4f50a100dff0206U,
  0xf6ff00f3f407fff9U, 0xf981fa150afdfad4U, 0xebfdfb03050af96bU, 0xeeeec0ced0af622U,
  0xc5d8f96d6045e2f8U, 0xfd1dfc28ea0a0e17U, 0x209e7f02705fa0aU, 0x2202ee057f1406feU,
  0xebff1ee902eb04eeU, 0xeff923071df5ff03U, 0x14f4b5e7ffed14ffU, 0x1c004dec9ceae601U,
  0xd5f7e1deea37eefbU, 0x425f6f010000fffU, 0xdf0e0efb17f5190eU, 0xfd18c9e50ff601e7U,
  0xe8b92ed2f05a440dU, 0x81f1df1cf013010dU, 0xfb43023039e70205U, 0x63f1ff0df919061eU,
  0xf75fd605f8fc112bU, 0x1f00e80f0152e5e7U, 0xfafae3e0fddf01e9U, 0x6fbfceaffd8100aU,
  0xd2ee261300e60a12U, 0xf0f9819b090303e0U, 0x21e20ff9c5004e1cU, 0xedff020706f90300U,
  0x41802fffefa06e1U, 0xe5f77f01150708c6U, 0x18cdfd29fa00U, 0x20b00fbfd21f3ffU,
  0xeb00fe060504fcfeU, 0x5aec209fc060145U, 0x809f5fadd0c191bU, 0xe512e40a09cee6efU,
  0x1cf615c51610c91aU, 0xf1ff7fb7af20302U, 0x76b2edbc9e4f543U, 0x30c6ede9f0b5f1faU,
  0x81f204206601c8faU, 0x1bd0cfbc1ae2e7d5U, 0xfd1f7edf71ef0cccU, 0x7ea011103d90a02U,
  0xf6e6f8e2c7d8131bU, 0xcf3eff0fb0dfadbU, 0xffd4c8e1031603f5U, 0xe5020b00b5070101U,
  0x1007f1e27f0f0b05U, 0xd2af71ed750d706U, 0x120e431dda042ff4U, 0xf9fc0c08f2ebfaffU,
  0x130ff4def8edf0f8U, 0x1cf208fb7f18f621U, 0xf50a1720ee1a0e1dU, 0xd014fff2c9f0f1f9U,
  0x62f908f3eb0ff60fU, 0xfb0229b2ec0bd6feU, 0x8fd10020d09032bU, 0xf5fcd90fc71d15d9U,
  0xd908e17d4436e014U, 0xffecdff3c3e9ee16U, 0xe51bfae9d6d409cbU, 0xdc3f0f17f6458d1U,
  0x9bdc4b1015f3c70dU, 0xe6f566c6050197fdU, 0x2cfc54c8e900ca3aU, 0x30b8704fecb1002U,
  0xd8fc042becef11f5U, 0xf92cfd0409f9f904U, 0x950af1082bf2f2edU, 0xaf9e8fe27ee7fffU,
  0x39f6ee1012010249U, 0xf2f607ee022ed800U, 0xef70cee0500fdf8U, 0xfed7ff11f205eff4U,
  0xbff1e000c03fe11U, 0x7f030a07ec09f107U, 0xf203f708070403f1U, 0x702ff5400f40300U,
  0xfdf502f408fd0f08U, 0x2f51d0a04130918U, 0xaf602fa10c0c2e8U, 0x110002147f0e2318U,
  0x2f7e8ef03fc0c03U, 0x1708170904ff0ff8U, 0xedf00c110402f8eeU, 0xfb0a00f3f5fcf5f5U,
  0x3eeff2104870710U, 0x970e12ed071e1cffU, 0x87bf218ec07ea07U, 0xf0fdf3f3fe0ef614U,
  0x280cf40406093e11U, 0xfe01d10e81f604d5U, 0xe90302c602f308f4U, 0x31bfe010ccc110cU,
  0xc9ec09eefffe0f11U, 0xfef2ce4b06f42919U, 0x98fdf50ceff737e3U, 0xdfbfc0307f9fc05U,
  0x903f6f7fdfd09edU, 0xe1fd37fb00fa023aU, 0x10e1c071d05feU, 0x3f6fbf913fc07U,
  0xe000306fa0a08f9U, 0x77f0d1afe01f9e4U, 0xe703fdfe3015f708U, 0xf10b0af5f7f00e17U,
  0xf3fdeefbedf41216U, 0x13ffff070d1204efU, 0xefee45ee0106030dU, 0xfce6f5e90b352107U,
  0xec011cfbe401f80cU, 0x50cebe401de7fecU, 0xe309e9fa19faf921U, 0x511dc1913f31515U,
  0xe040b22e6e93108U, 0xd47095c810f0cf4U, 0x2e2ae50eedf701faU, 0x1130c0d2910e902U,
  0x463d1d23d132e1e7U, 0x1d25110d65a8f5f0U, 0x5e1f46ed9e0c0c08U, 0x19feeff2cbec0ef3U,
  0xfffa270a1f1326efU, 0x62dfe097ffe0310U, 0xd2f9d5fc0ece0a1cU, 0x11001bf8094f130bU,
  0xaa17130915d50729U, 0xe1e811af132c5603U, 0xbad2fd0f370ec9d7U, 0x5e21dfb1c14e506U,
  0x91dfc170b09f6f5U, 0x14fc04f4070005fbU, 0x5147ff50df1fde9U, 0xcb19e40122efe0f3U,
  0xfaf41ffb1e0b09fbU, 0x16e2b3def9c6e309U, 0xe608b6f618e61301U, 0xf7faedfdf209021dU,
  0x1e0d05f30e0d300aU, 0xe5fcc6f6810afeecU, 0xfb0ff7db0cde0901U, 0x180d1c0ff6b21707U,
  0xb6e807c5d7f91306U, 0xf71a016aff102912U, 0x91f20f0dd61340eeU, 0xdefcfaff060609f6U,
  0xfbfa02050103f881U, 0x380939143221049aU, 0xff020bbef525f514U, 0xebfff6fafa2806f7U,
  0xa11f518eaf4fb00U, 0x2100bcb1f0501f0U, 0x4a0cff0214e901e4U, 0x7a8f98d06111abaU,
  0x49cd0af6020f2213U, 0x17f8f10be50f28f8U, 0xdfffec00f01ff62aU, 0x13d41be3f3fa1107U,
  0xdd7f102d15f50c20U, 0xf0020d03fcf007faU, 0x1f1eb321c0918ffU, 0x9010205050a02e6U,
  0xff0f060004010c00U, 0xf5f603021903fffdU, 0xfb0bd9e205f9ff07U, 0x1a0a09030508fa07U,
  0xf6f503fffd060806U, 0x7f0fd24040d1701U, 0x7f080f0709070fffU, 0xe0215fcd913f1f7U,
  0xeffef67f07ddfd07U, 0x10e9f703f900080eU, 0xf4f322fc0bf50c05U, 0x1e00e6f7bb090514U,
  0xfef815fc2e161606U, 0xee02fef6f2eebe02U, 0x615f71f08fefcfaU, 0xfcfb19f8ff18f905U,
  0xffe035653810103U, 0xfd0c02000bfe0100U, 0xf8000b06ff00fe01U, 0x12fa02008eea0e0cU,
  0x600f30ef008060dU, 0xfc0602fe0308f902U, 0xfb0e0e0dfbfd0503U, 0xbf7fb0ff1fe01U,
  0xfefffca4be2e0701U, 0xf900fffd070af900U, 0xf306fe080e0d00f8U, 0xcdf7dbf87ff61404U,
  0xed0301f470e40907U, 0x130106fbfb09cb04U, 0x1e10e0f0d020df6U, 0x76f4e3ff08fce6f5U,
  0xec43f8ebf504c8d7U, 0xfb0ae2012912fd0fU, 0xc035fd0f2e40400U, 0xef5ec0afe1b06f0U,
  0x1b20f9070901e405U, 0x14c57fb200f205e5U, 0x1808f9083fee6b81U, 0xe30ecc070adffc24U,
  0x14150b0e42503207U, 0xe677eb041ce1fc03U, 0x13f5d8f528ff02faU, 0xd0c6151409d1391eU,
  0xffe0f4328107feeeU, 0xfed702e337c15f03U, 0xde023d15221b0ff2U, 0x193df10cfa1fddf0U,
  0x35fce708222035fcU, 0x1702e6f593f8060eU, 0xee342f00088e1606U, 0xf3fca30501f00d08U,
  0xdbf426ec2d012806U, 0xeeeee7907d12e0cU, 0x81f80008f9e52de7U, 0xfa0e2aff09f21afaU,
  0xf920b3fddffa14e1U, 0x90f349f006c7c7afU, 0xfb0df481f406fdf4U, 0xefebeb9cfdeffcf2U,
  0xe71ac0fa020c140bU, 0x749ddd104d70619U, 0x409fb1cb17d4ef7U, 0xfaf8e609feeb0316U,
  0xf7011dfcf2f93201U, 0xed3d040a03f6fd0eU, 0xf709f6f9ebfbfefbU, 0x16e8410ffdef1b2bU,
  0x1909ee219bfde404U, 0xf909040e0de47f10U, 0xe6033cfa230c130eU, 0x420b0bcb1b0815e5U,
  0xed960cfcf9e5130cU, 0x7f0901ff03129ad0U, 0x1705f4f5f4dbeb29U, 0x29eb12aa00e30cf2U,
  0xe0fb1a15fc070602U, 0xff1f8fbff8f410feU, 0x19000cfab88749e0U, 0xdbfefd0103020403U,
  0xf10606fd0001fcd7U, 0x3df72903042e0541U, 0x503dc1bfe01ff06U, 0xfefc01fffee1f7fdU,
  0xe5fdf40e0203fdfbU, 0x39a82ea0102007fU, 0x8020004cd01f77fU, 0xfffee404fbe00c0fU,
  0xed02090ef7c22d02U, 0x6240e03e8fb0111U, 0xe5ff02fd0dfffb01U, 0xf2ee190501f925ebU,
  0x1b09f91781fffa16U, 0xfeff04fc0bec6400U, 0xd9004b031a051505U, 0x70ff1d8057ff9U,
  0xcffeafa08f91303U, 0x20d020307f3e9fcU, 0xf3f4ff02fb0b6f00U, 0xdf311f409f00afeU,
  0xfc0102fff0cc00fcU, 0x27fffc0bfdff0403U, 0xfb2af8f6ffe4ff08U, 0xfb10eaf6fb09feefU,
  0xf00edb1c27efe0feU, 0xf8ce0defe4f506f0U, 0xf9f513f614f605f1U, 0xf81798ee1815fa12U,
  0x21f509e439fe190aU, 0x70af9f5f41681f9U, 0xbf8ec1903e5fcf0U, 0xdf2907daf9f811ccU,
  0xfdce030402010b46U, 0x36063a307f23120fU, 0xfb0c1a30fd6b0115U, 0xf604d0f6fb770dfdU,
  0x191cfae202172202U, 0xfdbfb60c3eda10dfU, 0x6301ec23ede9c6f4U, 0xff0807fe15ec0f05U,
  0x10fe02644ba7ccecU, 0xe520f30e29ef0917U, 0xea40f9f910ff04dcU, 0x4df4eb0494cb1fefU,
  0xdc09092b7ff1e60dU, 0xf6071907ff1bd004U, 0x3031a1f040707f0U, 0xfcebe0f40de9071cU,
  0x620eddec0d7171bU, 0x526f5d23c2019d9U, 0xb12ee4e963d905d2U, 0xde3bce9f2157f24U,
  0x20fdff1c4ef34c3bU, 0xf4ffe207f52a2fe2U, 0x1cecea660fed0ff0U, 0xfb010105fce30400U,
  0xe605017f7aa80003U, 0x3f4fd0100010300U, 0x40805f7f503fffcU, 0xe608f600aa08f5f2U,
  0xf8ff0f0611fc03feU, 0xfe0809fe01ff0bfbU, 0x700f205f006f700U, 0xfd060dfa01f30ce5U,
  0xf7f803f51215f7d6U, 0x1405131658ee0500U, 0xf2f2c901ff34f9f0U, 0x320f2f7f4320102U,
  0x7171311190e0c09U, 0x51feff5fef7000cU, 0x7ff9fd0a0cf7d010U, 0x1ff00fe01020001U,
  0xfefafbff01000002U, 0xf9fffd03fdf6ff7fU, 0xff00f51900fc0100U, 0x100fcfe0000ffffU,
  0x30302000102ff00U, 0x308d9fe02fcffe4U, 0xf4fefe000106fd0cU, 0xfcf9020dfef9f80eU,
  0x2300fcfa0805252bU, 0xe821e90b86eeff18U, 0xed1703e701f0fffcU, 0x100a0e03f9da090bU,
  0xad030ae319ff100dU, 0x417c37f0f15e608U, 0x920215dbe1082619U, 0xfc0d0607fd0e13f5U,
  0xc0f0f09d3e0e3ffU, 0x42d0bee9a080107U, 0x2f53e07f11f0001U, 0xdec81f0807162bf8U,
  0xeff0d0ed8fdf3ffU, 0xf80a07a3fc2ae907U, 0x81fb0215defeea13U, 0xcba1043f7f3c7edU,
  0x2af2eb0806f8bae3U, 0xe7f21217cdee0d1fU, 0xe525d4f1e75d1dc7U, 0x157fe5c103450ce5U,
  0xec02c4223c073d09U, 0x23e929e31efd2108U, 0xeb0c0b1c2c0ae5fdU, 0xefff0006da029c28U,
  0xe8fd81af03f2b90aU, 0x4013f90de2050af2U, 0x14fe7f02242ef929U, 0x502e7e0b448f626U,
  0x2048d25529d21af7U, 0xd8f60df4f5bfb1d9U, 0xc7e7adfc4fa4e936U, 0x3f5ff0666074503U,
  0xfdfcf0e7fa0800f7U, 0xdfff004edf80502U, 0xfb160c04e20ffaU, 0x3ee0c0201030f03U,
  0x30d090cf981f5feU, 0xc5f203fefff0ebf8U, 0xf78f9feffedf20bU, 0x71ee419c023f625U,
  0xddf9fd43a07fd215U, 0xe4fb1f2924df1ef0U, 0x9a921f4232bfd12U, 0x7ffef4fdcdbff4bcU,
  0xb1e0d02c838fdf5U, 0xa901d82a05d73af8U, 0xeb3fb4f13100fc1fU, 0xf90200f8fcfc01f6U,
  0x1fb06fb0004037fU, 0x5fee4060dfb1dc3U, 0xfdfcf91809e3ffffU, 0xfd0a0002060efc02U,
  0x21f70707f4050600U, 0x5462f1ff805011bU, 0xf1fe0e052cf2eb6cU, 0xf40def080ef71403U,
  0xf7ed0702edec04f2U, 0xff020b0539fd06f3U, 0xe78115120626f703U, 0xc0603f3002f29e6U,
  0x250f151d64f7f415U, 0x19f9d5e8f1a5f9U, 0xec050f0d04f5f5f4U, 0xfd01fc040d28fdffU,
  0x208ece3e57fe3ffU, 0x5f0f013e9050202U, 0xfcf509fd09fe0befU, 0x3a03f7f8f5fbee0cU,
  0x13f016fae90317feU, 0x8fcfa1509f02d05U, 0xf303d9faf7f201f1U, 0xf2040bfc000e26e7U,
  0x7f06361dfd011f02U, 0xf923012c10fffef4U, 0xc125ee1722eaf007U, 0xee59f8f716011f10U,
  0xd9ed5fc4d1142f1fU, 0xa07fe3a4e050d10U, 0xe9060ae6f70ff2f9U, 0x100dfdd5fbf2f9dcU,
  0x10f039fc0004fc26U, 0x7f01dffcee1207e5U, 0x903dbe5031c0c09U, 0xf0eefc3ff8e0fc00U,
  0xbf0fc02020e09f3U, 0xfe2180e07f2f7ecU, 0x60f07fe0cbeded1U, 0xf0bfdfc15060102U,
  0xf408f9f87fd1f604U, 0xc04f909fd08f1fdU, 0x7ee0dfa06f9fc15U, 0xc0fff1fdd409f310U,
  0x40f02fcf6fb0703U, 0x1400040110f12303U, 0x3f3ececfef80af8U, 0xe40b00e781f0510eU,
  0xa07e0fdfa08ec0eU, 0x100205f7fff2fd15U, 0xfd05e6f107000d01U, 0xfd0cf7fefa16edfcU,
  0xf2fd0ae2ff4703fcU, 0x7418020c030b1000U, 0x8c4fffd03fb0ff2U, 0x8e319ecec18f36eU,
  0x150ccccad5d13616U, 0xa4beeada4080808U, 0xe22c5900f013fc24U, 0xe9e0d000b81602faU,
  0xf7e9cf3c18f52930U, 0xef112befd3a832f7U, 0x81def9f8c3e9e619U, 0x2f1a18260bedf51dU,
  0xcdc40011f1fbd2e4U, 0xb071f20c9f4fc2bU, 0xf81b38e7041ffb1cU, 0xdf28eeff1110f102U,
  0x6efed007f2fcf809U, 0x2f6cbfe18e608feU, 0x810ad3121df61916U, 0x19fafdf40d0bfc0dU,
  0x4dbf9fe0c08fc7fU, 0xeef81e0f1109fe17U, 0x4061764fa0305f7U, 0xff000e03023af5fcU,
  0xaf711fe05fe04f6U, 0x890c1ef10e03f6U, 0xd0e0600f300f6ffU, 0xe6fdfbfc020108fcU,
  0xf9c90004fcfc030aU, 0x14001c01000e05f8U, 0x100dee00000ff01U, 0x1fef6edfff4fe05U,
  0xf2010409fb0000ffU, 0xfd1281e80af2fc02U, 0xfcfdddf9ff1eU, 0xfbff02f5fcfd05fcU,
  0xf7cd04030204fa19U, 0x404dfffff01017fU, 0xfff8e8450211f60fU, 0xf70103ed01f60107U,
  0x40400fcfb0001feU, 0x60ede1603f9faddU, 0xfafdfef902fee502U, 0x4fa251fcf56f8e7U,
  0xf702e74cee7ff6fdU, 0xdbc0e0dbfff0100U, 0x1afc11edf4eaff28U, 0xfd2a15f5c91db2f0U,
  0xebde16cc0328ffe8U, 0xcc05f9f805edfb13U, 0x920ddfbedf5ec15U, 0x2ded011efa07e709U,
  0xe1bec001101e88fU, 0x1202c9e4c0f60040U, 0x100212e8ffdcffe2U, 0xf10ee5f20e08ec17U,
  0x1c03f1fef3fd07faU, 0xff7f23e9eb0bf8f4U, 0xddefed055713f5f2U, 0xc6e7f1f020030f2bU,
  0xf5b40815f501daf4U, 0x29c51cf72adbe329U, 0x1fcd213fcd9f0e1U, 0xf9d60ef623edffe9U,
  0x2616d4010229dc00U, 0x141562f0ece6effaU, 0x8128e4f2e4f76cf6U, 0x29df37f00dda34bfU,
  0x12144501f6f67fbeU, 0xdafa5be504d523a1U, 0xf30bf013d655fcecU, 0x1624d222163df2edU,
  0xf531ec12bb23b524U, 0xf539c176cb0f8991U, 0x99033cff0356e70aU, 0x8f915081c3507f6U,
  0xf802fbcf25110df4U, 0xce206f3ede5fa17U, 0x121c09ef05f4ff25U, 0x8410f1fe7f22da0bU,
  0xe0e0fdea05e804f1U, 0x17f1ebf6fc0fd608U, 0x6ebe2e304f8f412U, 0xdef902fffe0101f8U,
  0xffff04fdfefc01f2U, 0xff020e0c077ff5fcU, 0x202f9ef00f202fdU, 0x7fc000006060001U,
  0x9000201f6070400U, 0xfff2161b05faf9ecU, 0xeb0400fd0f070935U, 0xb2cae5ae7e5060cU,
  0xe5010f250300ef04U, 0xf5e1f20e28020307U, 0x2902fedf3005096aU, 0xcdeee1629fdf509U,
  0x74481390af401e6U, 0xfafe0ee3000814f7U, 0x804e671dcfdfbf2U, 0x27ff0003f904f607U,
  0x10cfcfdff01f97fU, 0xf7001a01090c0ed1U, 0x20002f2fcf4fffcU, 0xfb04fb02ff0afefaU,
  0x2205fbfbfffc0400U, 0x469fb0a01fcfd69U, 0xe4fef90028fcf762U, 0xfb2b070417f407f3U,
  0xfdf3eefce3ee285fU, 0xc0f7019320315caU, 0xd0b5945f276f718U, 0xfccfdb0c03660701U,
  0xe10dd0a2dbe402fbU, 0x1481d92010ef03e2U, 0x1e0c041dab061202U, 0x26fe000050b6U,
  0x8c2e00003a8dU, 0x33f6ffffbe4fU, 0xffffaa1100003236U, 0x545600003d91U,
  0x5b2500003614U, 0x1a7bffff95ebU, 0xffff6428000043d1U, 0xe39b00001ef2U,
  0x19a600006c63U, 0xa94bfffff7c0U, 0xe3700018c5aU, 0xfffff36100007263U,
  0x7ce6000032c4U, 0xffffc988000016e1U, 0x7f38ffffe19bU, 0x1c490000d0ffU,
  0xa4dafffffbbeU, 0x6035ffffd8d7U, 0x14eb000019e5U, 0x15cc5ffffda80U,
  0x668d000045aaU, 0x555a000044d3U, 0x8e00005477U, 0xadc60000742aU,
  0x2cddffffbd2aU, 0xffffa93f00008c8cU, 0x2c7900005cb9U, 0xdbb500006151U,
  0x111ec00002974U, 0x15d400008ad9U, 0xe4f60000a70aU, 0x6f6a00006c88U,
  0x184f00002893U, 0xa0770000ae85U, 0x227e00005352U, 0xffffbaec000114ddU,
  0xfffff6830000198aU, 0x97960000aa62U, 0x6f8300010ca7U, 0xfffff746000044f6U,
  0x8a200000e1dU, 0xe400000289aU, 0xfffff2f100006badU, 0x38e000056a2U,
  0xd9ec000063e1U, 0xffffcc26000027c7U, 0xa270000b6a1U, 0xfad00001cb4U,
  0x4b70000336cU, 0xf07400002eb4U, 0x55f80001079fU, 0x1c6400008594U,
  0xffff695f00005afeU, 0x1018000033a3U, 0xffffef9cfffff1d8U, 0x8f00000af7U,
  0x2f3000003f0bU, 0x9906fffff94bU, 0x56e500002afbU, 0x2f6e00008b3fU,
  0x64f6ffffbd8aU, 0xffffd14bffffe167U, 0x96bffff9a49U, 0xbfc5ff4f817031eU,
  0xe0f302bff504e8e4U, 0xf8fef6f1fec4f6f8U, 0x707facefcffeff5U, 0x6600f7f800e5f3e8U,
  0xfe1de9fecf0cf50aU, 0x1f819b2f6ea02efU, 0x8a406fc16fbfbU, 0xf600fefc04f6ee1bU,
  0x419fb060000f5f1U, 0xfefa24e70806240cU, 0xfa0a09f010e40a02U, 0xfc030bf401f8fceeU,
  0xfdfb9cf9fff72705U, 0x3bfc01fc2c145104U, 0x5f60bec00fdfffdU, 0xb20c5e04eb7fda7fU,
  0x9d0cd181f9219281U, 0xfdfea7deb022f3U, 0xe28cfa88edd91cefU, 0xdcd0a08f9fcdc81U,
  0x37f0330eef2dbfaU, 0xcbf57f90f911e504U, 0xfd09a52c0bdef607U, 0x11ffee0105e6f57fU,
  0xde7ff200e2faa9aaU, 0xf7f1f8b522b47f17U, 0x24f3fd09fe9ffa0fU, 0xf1ed02fdb8e00e84U,
  0x1adaccdffee2f1f7U, 0x4cd4e8157f09ebc8U, 0xd6ff1fba7ff1d1f6U, 0xe3010500f318fc1bU,
  0xe7ebf8d4fefcececU, 0xfd000be9f58107fbU, 0x585fadcfbeaf5f6U, 0xe7f9f908031c2fdaU,
  0xfe27150110f8f4fdU, 0xf4f821bd10ea04f2U, 0x3eebe0dfaedfafcU, 0xfbfefbfb0500f021U,
  0xb1d0102fdfff7f5U, 0xfd03e1f203e91907U, 0x7afcfe09f0edfffbU, 0xfc02f30d03fdf7faU,
  0xffff04f80701df02U, 0xed0dfefc2619e6d1U, 0xb0c08e741f9f9faU, 0x5a195811d5f5ecf8U,
  0xd31fde9bdc22f702U, 0xc2fd8181e3dc14e3U, 0xe346fbfeebe1ccf5U, 0x7fdb0cebef8edbfaU,
  0x7fa920907c6e27eU, 0xdde8ff98890ce10bU, 0xfe9c822dfbb600fdU, 0x14f6f2040d00f5fcU,
  0x70e9f1fae5eeecf1U, 0x1f37f2f1fbeec22U, 0xd77e7fca7f817f0dU, 0xecfa7f83d3d7f8c0U,
  0x23e18100f4ddb8fbU, 0x7f52e6e7d818da58U, 0x358437b48df6d5f2U, 0xa77f817f7fe881f4U,
  0x7f7f7f197f7ff67eU, 0x7f7f07c6a2af817fU, 0x813c7ff67f7f7f7fU, 0xa57f7f8181faadfcU,
  0x7fe9f47f7f817ffbU, 0x7f7fe727f97f817fU, 0x8181c181897f7f7fU, 0x7f81817f81b17fe9U,
  0x81c07f81817fd7dcU, 0x7f81eccf7fa7c67fU, 0x818141cdfceeb47fU, 0x8181e701ce817f7fU,
  0x7f81687f7f7f7f81U, 0x71817f7fe07f817dU, 0x35fb7f7f0e7f817fU, 0x81109effd1f2ed00U,
  0x170ffcacecfee81cU, 0xfd027981e9dcf4f0U, 0xedc8f4eeee0ddef6U, 0xa6fdfff7e77f7ffcU,
  0xfdf17ffce2f5df81U, 0xf7dff3817f18eb00U, 0x2e281ee7ffbfbf8U, 0xff03fa000c0af2f8U,
  0xfbe1e706f8f7f2e8U, 0xf1fa9dd8183ce314U, 0xdfdfb7f84b0e2fcU, 0xf2fc977fdde8f32dU,
  0xbee72f8b4dbf90cU, 0x98cfd8f2e51c2781U, 0x817f1a0e4501dfd8U, 0x70fef806f3f4fde8U,
  0xfbebfab8e6092601U, 0xfdfaf0d81ad205f2U, 0x37ffa36fce0eef3U, 0x1dfef50b09e3f621U,
  0xf9e8e4f61604fb12U, 0xfff1e9b7efe906f1U, 0x9f0e309fff5faf8U, 0xf802fdf8050aefeaU,
  0x2ffffd09fdfb1f20U, 0xfd05281e0501f203U, 0x28fa0fe81eff05f7U, 0xff0714ed2702fcfaU,
  0xf1fbfcf70ffaf107U, 0xfb61f704ee10d505U, 0x30e302e1fbfff7feU, 0x7904a301f198f38bU,
  0x25030a9fe2147f16U, 0x202fd8f7fe0e2e1U, 0xeb30f97fec0716f5U, 0xa7040cfd7afde47cU,
  0xfd9afe0fd70cd9f9U, 0x13f39798f90fe601U, 0x5fe86ebff03faffU, 0x10faf9fc027ffb97U,
  0xfbc5eb02eaf47f7fU, 0xf8faf87f157fbd03U, 0xd5ec05f6ff9df9fbU, 0xf4f1fcfb7fe8023dU,
  0x5f732e9effae4fdU, 0xa428dda1aaf75e16U, 0xaff15e49df6dfe2U, 0x20027f7f6f6fbe8U,
  0x5eefbc8ea0a2101U, 0x10213fc23bffef7U, 0x718f82efe00fcf5U, 0xc04f9fa121a2029U,
  0xfde719f3e5faf7f3U, 0x7f5e8c218f204f0U, 0xb0df4ee00fcf9f9U, 0xfd02fcfd0304efe7U,
  0xf705fe0706fe1b23U, 0xfc05de08fe5bfd08U, 0x306f91be1faf8f8U, 0x20bf0182300fcfbU,
  0xf2fe26f8d8fb14ffU, 0xa6fbf1fbfb0f0ff8U, 0xec1efefef4fee6fcU, 0x369200000138U,
  0x36270000017fU, 0xffffffd0fffffa03U, 0xdafffff57eU, 0x1020000015fU,
  0x1abcffffef2bU, 0x11340000ca44U, 0x9b3000005ccU, 0x2a1c00001b92U,
  0xae100006fd6U, 0x720000926dU, 0xfffff9b9ffffe6f8U, 0xfffff2ce00000f43U,
  0xd8700000a9dU, 0x800ffffffb9U, 0x396c00000038U, 0xa8b000000baU,
  0x851fffffd9fU, 0xffffe1ee0000443dU, 0x2790000221bU, 0x375d000002a0U,
  0xfffffecb000034e1U, 0xffffff9b0000084cU, 0xfffffbe700000029U, 0x43b2ffffe872U,
  0xffffffe3ffffecbfU, 0x11f0000691aU, 0x17fa0000136eU, 0x3f8fffff244U,
  0xffffff7600000382U, 0x6c68000051b6U, 0x1beb000066fdU, 0x172d000000daU,
  0x44b9fffff9f2U, 0x33fd0000022bU, 0xffffe257000027feU, 0x17c00000024U,
  0x3a7000000190U, 0x901000017a0U, 0x1f800000059U, 0x344fffff636U,
  0xffffd7d4000004bfU, 0x51800001a49U, 0xfffff5f900002c64U, 0x15e00000724U,
  0x18d00005840U, 0xffffef23000002acU, 0x7e00000758U, 0xfffff1390000298aU,
  0x1ca00005474U, 0x13200000070U, 0x3af4000026d3U, 0xfffff85e000019f2U,
  0xffffffb000000802U, 0x7b00001276U, 0xffffef3800003ffaU, 0x4d0000012efU,
  0xffffffa6ffffe5c1U, 0xfffffff3000004b9U, 0x9daffffff45U, 0x6d4200000d5cU,
  0xfffffb23fffffcacU, 0xfffff84cffffffefU, 0x351000000e8U, 0x20defede41416e9U,
  0xf6e1f865f7fcccf5U, 0x1612f314ed26f22dU, 0x9f7e6eb1bf71315U, 0xfabb1819f5090ce1U,
  0xf8f4f8e834fae5feU, 0xf3f2eb271ee917dcU, 0xdbd416e918182a37U, 0xf4e3f7feecf322c7U,
  0x1d0fed050829f0eeU, 0xfce7fd121808f101U, 0xf82cee21fff821e1U, 0xd0e8fbfff30718f5U,
  0xc0f1f67f0a0704faU, 0x30d181be415020dU, 0x280c13fb0f1406d7U, 0xfd13f2c702fe320fU,
  0xfb0dd6e21a0cd35cU, 0xff2e09f4f6fa21d8U, 0xe6f8d43221ed0b81U, 0xf1e43234faf8ecfbU,
  0x130723600ee7e2fbU, 0xd7120ffaf302f7acU, 0xc1feb3032409c43cU, 0x14f5a61930f315f6U,
  0x23268bdf7760127U, 0x30cc19f2aefdfe63U, 0xeaff090e0e151beeU, 0x32f22303e2ba17f2U,
  0xd498145402fffbdfU, 0x4ef0bf7e144fa12U, 0x4016d0af419b727U, 0xf6e71e7f06fe02fdU,
  0xafa00f2f804f40fU, 0x132b04fb070002d1U, 0x3c0800edf50a09eeU, 0x908004f18fe0a00U,
  0xafde30e3fc5fafbU, 0xf91f0df3fbf8f308U, 0x133a000eea12f209U, 0x8f3fb17ff24f5U,
  0xf302130afeff0af8U, 0xeedfc0f011d0cf8U, 0xfd1cfee3fc05fffcU, 0xfff7fc020b0b071cU,
  0x5fd10210dd9e40eU, 0xbf0f3f4fcf02bf5U, 0xed06f20bf60909f7U, 0x2a0611230e08c2f8U,
  0xf5022c0a15fcfefbU, 0x201f20010e508eeU, 0xe70de609b05c00e4U, 0x63800f11c22ed17U,
  0x19ff0c0d14f215faU, 0x2c21264c0207e049U, 0xfdccdd0efbf30645U, 0xf008e8467f2427f0U,
  0xfb16f04204de1cd9U, 0xecd10c1fe92a1cb3U, 0x914fb24040528fcU, 0x12f60d02d3dede04U,
  0x17db11baf3f2f318U, 0x408fb1d0f04f51cU, 0x215fd1d10001ff5U, 0xf10909740a0300f7U,
  0x60203f1000afb04U, 0xf21d0a100508fd0aU, 0xa003001606fbf707U, 0x400f94afb010200U,
  0xf8ff040d2eea0d04U, 0xe1000106067ff0U, 0x400fcfbfbfbf9ffU, 0xfa0408ff400ff1fcU,
  0xf200fafa03e80bfdU, 0x60207f410e8000fU, 0xf4f4ff0c06fffbfcU, 0xf9fa0d05fbfdf013U,
  0xfcff10fc0504fef9U, 0xdff201090304000cU, 0xf704fe00fdfc0d02U, 0xe3fc09b524080a07U,
  0x210507f2f2f80a1dU, 0x1bf9f90a0af3f9d6U, 0x16b92f100e060e0eU, 0x90bcbf5f6d605U,
  0xe8eb8cdccd110a0bU, 0x7e9ed1bedf6de2bU, 0xfcf10703f711100aU, 0x4feed11f3fe20e5U,
  0xf7f93dfe08c0060fU, 0xe922118f0756fd0dU, 0x1f15086415f1d2f9U, 0xfef60ee906fd1831U,
  0xfd1e557ffc060105U, 0x84131207e701f89bU, 0x1f02ff067efc23d0U, 0xd037127af304ec01U,
  0x15ef032cff0112f5U, 0x4fc0de00918e70bU, 0x63da2f1110fef533U, 0xec0bed7dbf130207U,
  0x10708df1fb81f05U, 0x1def6ebff0c81e3U, 0xec2aebf4094e04e2U, 0xe3ef230d4c29fc0aU,
  0xfa081ff012d70911U, 0xf2c05dfa51f04feU, 0xe605f228fcf83405U, 0x5fc11ff0e511fbcU,
  0xdaf529f328afefe4U, 0x1ad315fafe1714fdU, 0x1a130efbd4fc0708U, 0xf31515dcfb07f4ebU,
  0x110e142900f8e7fdU, 0x1c570a49fefefbf2U, 0xe911e5eaea092312U, 0x5f50a34f60619e9U,
  0xfcdcf2d6ff000a09U, 0xe805f31d2212eb10U, 0x5f51d0801d90b51U, 0xd07b720c3dd76eeU,
  0x26f9080b18afe5e6U, 0x240511f4f4d2e1dfU, 0xff2b021d030e2402U, 0xf5171301ed0b7f2cU,
  0xea07094805c8fbf1U, 0xdd09f1f3f6fdfaf4U, 0xf6050a0004ed1ffdU, 0xfb0dfe1dfaf11aefU,
  0xfdf2eff004fdfbf8U, 0xf517ef0b050bfefaU, 0x1702f8dc180101ceU, 0xf905fbb502ff00eeU,
  0x7f04f0f7f70511ebU, 0x610effdf4f41727U, 0x9152806f3e9df07U, 0xfe0925c51efa01f1U,
  0x5e7133809f7f8e4U, 0xfb38f4f9310001f2U, 0x4eb20fae2fcf831U, 0xc611daee063508f7U,
  0x118ed29ffeaf7eaU, 0x4030f0314e7fcf4U, 0xfbedd4f403ef19e8U, 0x63bef10a33a14edU,
  0x1ff6ec00badbf317U, 0xa081bedc764097fU, 0xf500bd0a48ec2d11U, 0xe6d2ad06f7f2e1faU,
  0xb1da06bb17ea44f4U, 0xeab823bdf9eeeac4U, 0x3aca11fa220cba18U, 0xf4fb13bbf231f7U,
  0x250f6fcae6b8f912U, 0x5d20100ffffc910U, 0xe60edc2e0aea37adU, 0x48e923f9db00081dU,
  0xe7d51d5724151ad8U, 0x1adeef2bd7eb2032U, 0xe5193c3509dc10ceU, 0xe5f61330260f1908U,
  0x81c12100411daebU, 0xe6c1fc10f204ff2aU, 0x17ee2eda220ffc52U, 0xe915060207d403ecU,
  0xdee2db07033222f0U, 0x3eaf21a02291314U, 0x30100411f2f9d4e1U, 0x1e14064781f50c09U,
  0xea06ee1c11e00c0bU, 0xff3ddafd1cecebddU, 0xf7fe0cedf204f41bU, 0xb29ee07e4170911U,
  0xf18eb0bfafc0427U, 0xe70feb07e8ea02fbU, 0xf6f0ff00e1da32ffU, 0xe61ef4f5cd051df1U,
  0x2504f2bbfac51b16U, 0x181b12d0fcf711f2U, 0x23fffbf0b404eecdU, 0x1ff0def0222322f6U,
  0x18ecdef9060a7f13U, 0xe305fad203ec3005U, 0xf9f3eb00442554c8U, 0xd20f00886bfc09f4U,
  0x34fe2506eb8eea06U, 0xac18ef16f81d47feU, 0x2a03d003edfb0afbU, 0xd7f31dfa52f4f903U,
  0x24c1edce2126f1f7U, 0x7e6380805ebeeeeU, 0xde01c2100e1a0000U, 0xf9fffefbfa060203U,
  0xa0c050917ff09e7U, 0xe7fcfd2dfffdf913U, 0xaf0419fb5001ee0aU, 0xfa08f905d20c0900U,
  0xc0508e4f8ea2b04U, 0x6acf8e907f9acf3U, 0xf605c90a12272613U, 0xed057f470cfab6f3U,
  0xfefa540ff7ecff14U, 0x6420a034cf70809U, 0xf7def703fe0df8feU, 0xef20cff0862dd13U,
  0xf70400d913271a00U, 0x1010a15000909e0U, 0xc01fd0bf7fd0321U, 0xdd120df61105060aU,
  0x2e04f129f84d0b0eU, 0xfcfad11013ff0407U, 0xfa070efc01f5e6f8U, 0xb13faf90de0fb02U,
  0xfeffeae0021130e8U, 0x1f0d0916f5090408U, 0xf51d0dedf2ff0ff7U, 0x10000bfaff0509fbU,
  0xfc0a1cfff8080e05U, 0xf2dcfb0504f9f510U, 0xf4db81f40009020fU, 0x15f6fae408f7fb11U,
  0xef01050cf502U, 0xf2dc0a0cfb3a170dU, 0xd9eef5f5f9f01bfaU, 0x202acb09580a36f8U,
  0xf02035dee5e5251eU, 0xd551df823dd3b4bU, 0x360ee8fb1530f8fdU, 0xf945f9003d031202U,
  0xffe45f928da1bU, 0x333802c71d332dd5U, 0xd8f0f704f1f2c5U, 0xc945fefdcd0fd3deU,
  0x2816e3e510b2f733U, 0xc6f704040afd1a81U, 0xf21ace0b0c1608fcU, 0xeb0e3bf743f7e710U,
  0x300a07c6d309db37U, 0xaeb12003003e3fdU, 0xff1cc3db15d5c0caU, 0xeeef8424afafefbU,
  0xf90fecf535110a08U, 0xc4040bf7050505d9U, 0xa0b050a3104bd02U, 0x7fc0601130f0809U,
  0x14f6150bf57fd70fU, 0xf809080af709eaecU, 0x80bf407d8cf4009U, 0xc0f0423fc0ad0f2U,
  0x703d00afff70a06U, 0xb8150c0118051f15U, 0xce607110a03f900U, 0x22df0e0401fff8f5U,
  0xf31d0d12ebc1e7ffU, 0xa07f0fef30bf3fbU, 0xef03d7f914f3ecddU, 0xff1c0403fd02f80cU,
  0x1fdf60cf0fc09ffU, 0xc0386fa0bfdfa03U, 0xfc05fb04fefb0a05U, 0xf1fcfbe202c2020aU,
  0x20ec8f407df148eU, 0xf5fa0d07a30900f6U, 0x8effb000105fe03U, 0x5eb05fcf001f90eU,
  0x8001809020c060eU, 0xf8cafefc0c081cU, 0xdfff3f18a0301f8U, 0xedff819811fd0cf8U,
  0xff04f90d0505fbffU, 0x5fe15f90bfe00f1U, 0xe9b00300010509f4U, 0xdff7fdfd0e9af817U,
  0xe30735f20bf5e4f6U, 0x9ffa30af6dbf406U, 0x8f6f6f507f5fa23U, 0xe7dcfcfe0510e918U,
  0xf0dfeb03f4f915faU, 0xf605ee1cfafb0721U, 0xf3080424d801fae2U, 0x30afd02eef50f81U,
  0x35d8ea0ffef4ea0eU, 0xf01e1fb04e71b06U, 0x1ffeff7203df800U, 0xdaf50f3609fb01eeU,
  0x91aed18f71d100dU, 0xd9cb1e4c0cf0fbffU, 0xed070bf5fdeefa36U, 0xd6350bf417d113c8U,
  0x6170e46f208d6d5U, 0x20e8dc31ea36e624U, 0x1be821e504fefd29U, 0xfa0afe4502cb02b6U,
  0xe1b1d9fdef4127e7U, 0xf22bb835e72a34f2U, 0x31012717d81717ecU, 0xc40131481e6f6eeU,
  0xd9e6fef51befd4d5U, 0x37e1aae0efc1cfd5U, 0xcb1002cad44e0227U, 0x22badeed17d824U,
  0x2a46e00de33ff923U, 0xf8e7baf4dd0908ecU, 0xe3c433fad2d20c05U, 0x11f1f0faed810d00U,
  0xe0affedf3fafe06U, 0x1120bed92fd020fU, 0x40eebeffe0e0dfaU, 0xfe0ef4081201f10dU,
  0xf14ee0918f300edU, 0x1f205eaf5f6040dU, 0xbfe07020002f8f5U, 0x809faf901f2032eU,
  0xfbe9f5fcf7026ceeU, 0xf30bf204000af7f8U, 0xfe0a04fbf6f9031aU, 0x50403f90101f1feU,
  0xcfdfdfcfe0e1cfaU, 0x150e153e05fa25f3U, 0xf604041211f5ff30U, 0x14fe0a05fffdfdfcU,
  0xd5fbdd03fa0302ffU, 0xfd000100fcfed100U, 0x3fff8fe0c2ffe01U, 0xfc1e050affff06f7U,
  0xfff6fd00060900fcU, 0x240315fc04fe0300U, 0xf9fcfa81fb02fffbU, 0x3ff04fff6000709U,
  0xf8020700020704fbU, 0x301fa020501fb00U, 0xff000400f2070200U, 0xff0001fe04fffd02U,
  0xff040105f8020204U, 0x2f60eff03fe0006U, 0x6fa0421fef1ff0bU, 0xe00afaf213120ef4U,
  0xe9fc0efd17f8d132U, 0xf23cf9191de708dfU, 0x1719e4ff420df9e5U, 0x404811ad60625cbU,
  0xbe4fde018f62800U, 0xf80ceff5f6032214U, 0xe0f8ffed0df708f1U, 0x6300e9030e195ce6U,
  0x30518170ffabbdcU, 0xfa100139f9200407U, 0xfef617f90bf604efU, 0x1cf30101c6fae526U,
  0xc3201c07080b2026U, 0xf6fe20e0f3fe230dU, 0xfd0733011206294eU, 0xf0fb0204ecf9fdU,
  0xfdfbfb00f91002f8U, 0x90bfc040e02f60fU, 0x100e3fa2207f9f1U, 0xfa040509020881f6U,
  0x2fc0fff0a01ed18U, 0xfb11060df90a0500U, 0x19f7fafefd0bf4edU, 0xfdfd05fee0f9f601U,
  0x12fafafe0c02f4fbU, 0xfdfdec01fffaf805U, 0xa04070cf3fffefdU, 0x7fcf504fc00f807U,
  0xf4050021fb09fd09U, 0x307fcf8010c06feU, 0x40506fefd090543U, 0x2043efff5ffc7f7U,
  0x1035def9f3052706U, 0xaff0f0cf8f2132eU, 0x201f7ffff1c06e0U, 0x551d040e0bfc9be9U,
  0xfef04080b052903U, 0xd915ffed01fbfef6U, 0xe60e010d43130809U, 0xd62af4ec120bebf6U,
  0xf791fcf61710ca7fU, 0x18131407080939fdU, 0xec0a1d06111d0d25U, 0xee1cd3078600132aU,
  0x2b2c3b0cfdec071aU, 0x26f90fdc1d003102U, 0xf80b05dffffdeff7U, 0x912f10dff030707U,
  0x304f3f1fb060713U, 0x414a1f5f8f00203U, 0xfd04fe0223fbfb0cU, 0xe8fcf7eb07a21201U,
  0xfd0cbbfaf8051aacU, 0xfdf1091cc900fcf6U, 0x8040ff8dbfe0afaU, 0x8f30e09f1ff06ffU,
  0xf10c17fdfaf90310U, 0xe7e9cb060604f412U, 0x18f1fdc4af01f604U, 0xf20181ba07000e03U,
  0xf702ee04060cfbf8U, 0x5fc0000000af8f2U, 0xd6ce100bf4fd0ef6U, 0xf6fc09f305defee0U,
  0x30ee20606fbe9feU, 0x5fdfb157f06ecfdU, 0xf512f2e8ef03fdf4U, 0x1207030b0207ea05U,
  0xb33ffe222ee1aefU, 0x18201019eaf811U, 0x4fafa0ef71bfe02U, 0xda04f7f1f3fa0918U,
  0xee1b0503f3e507c9U, 0xe60102040314110eU, 0xf2010dfefbf1f905U, 0xcf0ff13050af7f2U,
  0xe7010c0103140f0eU, 0x42003880a11070bU, 0x1efefb0807c80a0cU, 0xb50cce082e03e803U,
  0x4fe8ca2a1df50807U, 0xf0b7fffefc0a460fU, 0xf6fa2309c58101b6U, 0x10abf3f3f8160a06U,
  0xf0a00dafb0a0907U, 0x15fcfdfb03cef5f5U, 0x3916ef14fe00ebfbU, 0x44fc06cfe8ce0eU,
  0xfe0108f0f5faff03U, 0x14f4f6f4feedfb08U, 0xee3f004ed13f8eaU, 0xe607f3f61305f511U,
  0x61b05d674f904e3U, 0xeeee0614f20a0df0U, 0x7ea055defec0bf5U, 0x1b3cd8dcdf0eee12U,
  0xeceee72005f71bfdU, 0x28e113bdeb14e916U, 0x810d0afdd1f703efU, 0xae8def9d919e307U,
  0xa1f04d8ea020105U, 0xf3f91ae90dcf44e8U, 0xe9a9ca111af00cf4U, 0xeee0122fe40cce0bU,
  0x31221f5fcf3f818U, 0xf738011a77c916eeU, 0xeb1bf2fe16f519f8U, 0xf9e3070df88b1237U,
  0xd8d1e9c0025bfbf2U, 0xf5011ceb010d0123U, 0x1111afc091131feU, 0x21910dbdb1ee6fdU,
  0xf9b5f50022f5fddeU, 0x34edf9f4ff13fdf8U, 0xf2fdbce145171823U, 0xfe10e72ddf1dfb0cU,
  0x64f0f3c7f4ae17edU, 0x2824ebf4ff09f1d5U, 0x1281edf943217f14U, 0xe208b937a1eda8f7U,
  0x3f24b24140b0d18U, 0xfa45fa070b012710U, 0x545fd08fcfa1e02U, 0xf2d7051127f31306U,
  0xe6eef30f0e2df9d9U, 0x13120bf6e4fbf410U, 0xf008eb0df809eb05U, 0x6eb19061ffaa9faU,
  0xf006fcd511320cf9U, 0xff47fe1711f3102bU, 0x7240fc0eff9f9U, 0xf17fce80406f8f9U,
  0x8ffb04d20bedc3f1U, 0x11f9f2fe01e2fefbU, 0x11f6f5d01b0c7403U, 0x1a26f91be602cd16U,
  0xfe07b3e7fcfefb12U, 0xe6050ef90704ef0dU, 0xa08f80012020909U, 0x7f021605fd0702fdU,
  0x30e04d6eaf60920U, 0xfd13d40afaf709f1U, 0x1afe0533fcf30b45U, 0xfd1d2cfe261505e5U,
  0x38f0a81910180c08U, 0x2ee1df3fcf93e03U, 0xcff1b03f80afc0bU, 0xf17f070e0104f9d6U,
  0xfbfbf8ff0f04f826U, 0xb07d6fcff1b00ffU, 0xa0e062f06030304U, 0x100c1919fdfb1607U,
  0xcf01ed0dfc232b08U, 0xfb04fbf702fa0405U, 0xf0fd01fce5ef03f2U, 0x5fd02b2f8f8fe03U,
  0x140307101f0af6f9U, 0xee3334fbfd0a06f9U, 0x5d112f8f0ed1525U, 0xeaec09e528f9f8ffU,
  0x5fcf60f14ff080fU, 0xc5f9fd030aff001bU, 0x16970fec06fef9f0U, 0xeb0308fd20eff509U,
  0xf904fa0af1ddfcfcU, 0xea1a04fbf3ecfc0cU, 0xf72f050cfc5feb08U, 0xfafd13e5ed2bd6f5U,
  0xf60011f905fe0bfbU, 0xfff5f9073d030a01U, 0x2ce0981f8fc1e03U, 0x4f1f0f403bde21fU,
  0x7fe26edf4f3f1e6U, 0x2e90100f6060619U, 0xfd01fdf843f90ef3U, 0xce205000afa04f6U,
  0xbb205ec4af20705U, 0xeeecff0406040c01U, 0xf2f8ec041202f81fU, 0xfbfcf619f80cf7ffU,
  0xf303fd1af00df0f7U, 0x5f30fdd02fbedf4U, 0xe9eb02f702fe1cdfU, 0xfe0e071c0df10803U,
  0x6fb0bfad7e5f9fbU, 0xfb0f01f6f618fdU, 0xf4f8fd0516faf9U, 0xfae601faf7f0f60eU,
  0x1200fff40407f8dfU, 0xf802010afcdbfd01U, 0x2fd040cfb037f03U, 0x5606e92d642c2129U,
  0xadc09ffffd518f8U, 0xf2f51027351219c0U, 0x20e720dfe10dea04U, 0xf51ffcce420d064bU,
  0xeb06fb1bfa232619U, 0xeed10fe010c021fU, 0x203db34d728f3d1U, 0x57bef13f160ff718U,
  0xfacfa302f3724b48U, 0xeef30325f918e705U, 0xf2c6e9fce7d9eef1U, 0xd0ecf9ff3203e6e6U,
  0xf5e1ed81ea110607U, 0x54360d1609ec09f4U, 0x370007f74ae863d4U, 0x51e070ca81a0e34U,
  0xf7220decaf01f2feU, 0x817213116ec125eU, 0x608ef0b0d0c1c6dU, 0x31208061eebe621U,
  0xcf1e13c51520b62dU, 0xcdf26503620f606U, 0xf1afaeb33eac1a9U, 0xa1f34f72e23d734U,
  0xee35ac092481223eU, 0x361f29fced02e4ddU, 0xb27081c35071908U, 0xe033582c02ecde0cU,
  0xfdf60f01fde916e4U, 0x10ca0fc22f92214U, 0x82c1cd1effb0aabU, 0x2b0a150c02f701U,
  0xddc0b21eb0eff2eU, 0x4fb06d20730e04bU, 0x1df32afe9529022cU, 0x6043de73ae704f6U,
  0xf902f3492226dd05U, 0x663000af8e20a01U, 0x2434f604da0492f5U, 0x2815143b7f20e1fbU,
  0xf7fcd829f819f1f8U, 0x20f2f92409260be5U, 0xf91219e704fdea1cU, 0x3cf1e0031a190c05U,
  0x11f9eb851bf9fc1fU, 0x5fd170716c005f3U, 0xf4055bf009f60f36U, 0xec0509f257071907U,
  0xe1d80807f91df236U, 0xda1d037ffcd6e736U, 0xfa023be7f60c2fU, 0xdbe91828d2eef1feU,
  0x48fc4ce20a014211U, 0xe0aefdf6021607f6U, 0x2509e623d7d82c4dU, 0xfc17f1d7ceed2205U,
  0x3eb00e5ce26d7U, 0x1211091dd41ee2f6U, 0xde042a0106ece3ecU, 0x2ef9ea01c6de99dbU,
  0xf820fcf0e8f20e00U, 0xe1f7f2e41ef5170eU, 0x16f361170215eff0U, 0xf7f2ff12fe02f500U,
  0xf6effef4fa070f04U, 0xd5010bee04f104dfU, 0xc301efbfdfdf8f9U, 0xf803041e3903fbfdU,
  0xe0050e09ee00e9ffU, 0xf841fdf80009400fU, 0xfc05f6f4fcb1d9d6U, 0xf9f4decd15f2ff03U,
  0xfcf5eb010b13ff06U, 0xfdf9e5a714f805f5U, 0x3e303fdfdfb0ef1U, 0xfffcf5fe03033401U,
  0xf3effe62f44a03faU, 0x2febf0f3040bfa7fU, 0xf7000cf05002fde1U, 0xdd3fa0c06ef1006U,
  0xf925f2281805faeaU, 0x8effc0208011fdfU, 0xf8f2d40210ed0776U, 0xf8ff0ed9f80c07f3U,
  0x1c17093001f111f4U, 0xe707130f0fdef801U, 0x81f3e201ff090cecU, 0x191700bd1afe2313U,
  0x160544f504ec05f8U, 0xd020afb02fbfc02U, 0xff021101fabffb11U, 0x1edfbf40000ef04U,
  0xa70d03160205f709U, 0xfefc71f1f701f8ffU, 0x50822fd0206edc4U, 0x4da01fdfb020d02U,
  0x3e8f9f906100a0bU, 0xfbfd01f3f41ff5ecU, 0x13fddf08040bff03U, 0xf707ee13f8030000U,
  0x14050c050603180bU, 0x2165fb0b08141507U, 0xfa0713fe040decc7U, 0xe302dfe327e1f601U,
  0x3fabce92e7ffdfeU, 0xf0b80cfd17030604U, 0xfc0513ff060710f6U, 0xffea1506010f1afcU,
  0xfbeed5ca04ee0208U, 0xff0bff02f5e703d1U, 0x10022103ffed01f8U, 0x1a0813c959fae900U,
  0x144e2902dae0de13U, 0xf97f09e5f3d6132fU, 0x10131c1bc32afcefU, 0xfa0ef906ffeefa13U,
  0x462711f018eabffcU, 0x7ce70fd305fa22f4U, 0x171016160df796e9U, 0xe5f9e9d0e6e8110fU,
  0x71d0e0f0b08eb13U, 0x4bf31dfdf207ff40U, 0x806ec0b1200151bU, 0x49621710ebfdeef1U,
  0xf411f92600fbf602U, 0xd18faf92941fcf5U, 0xa0eef1209facb1eU, 0xdd0f00fa1be612d7U,
  0xe6f72023f108d9ebU, 0x44eb1212e70df0cbU, 0xf94b05edf9021320U, 0xfcecfdfce807e2d1U,
  0xded8e803ccdbdf06U, 0xef7bc0e131d10faU, 0x9b3eff010020817U, 0xe4f1cb230c0004d7U,
  0x2bf4f40f34bfcbe5U, 0xfe28f0f8fcf2ebe5U, 0xf11102c31e037ff7U, 0xebffeb15e7f83635U,
  0xfa32f82708fc08faU, 0x3efef6f9e60a031cU, 0xf1c0bfae3f0d6f7U, 0xf06ee40ed3e34ed3U,
  0xf007081200d9f7dcU, 0xb11e302f2ffec15U, 0x29e8a9f660ef07cfU, 0xf5e00d3706e60cd4U,
  0xe3b9e515f336fb00U, 0xcc20c40ceaf929f9U, 0xe22a530adb061836U, 0xc21d412efe0ce8e2U,
  0xf6edb9193c7fdcd6U, 0x1810d7fd1af6e3ceU, 0xef14c8f3da2efa1eU, 0x5d31dfe8e01711fcU,
  0x2f28ed040710f923U, 0xef0108fedb06f5f8U, 0xede03306e7334e08U, 0x10603f5fcf9f8fdU,
  0xb0006fc03000200U, 0x103fdfcfefdfa02U, 0x1fefcfb08070104U, 0xfcfcff0f00fdfd00U,
  0x401fd0504fff9f7U, 0x7f010600fef803f9U, 0xf805010204030701U, 0x80404fffe0c05U,
  0x70501010000f2U, 0x20106ffff01fefaU, 0xfc0701fdfa0700f6U, 0xfa07fbf8fe000108U,
  0x3ff00040002fdffU, 0xf8fffffc02fd04U, 0x2fffa09f6f5fb0dU, 0xefb9f7f9f50ce606U,
  0x137ef53a39efe641U, 0xf317eac9f333154eU, 0xbf104570cc0107a4U, 0xdee1afa4e02f70bU,
  0xd004f10f20f04e6U, 0xf7c3fdfae0decaddU, 0x725f420f8fbc6d9U, 0x1fd3b97ffa1d6ef5U,
  0xf8111ea8039808ffU, 0xebcf14ebea1801eaU, 0x15efde33ecdc27f5U, 0xddfc17ecf1f068d7U,
  0xc81912e026f5eb0bU, 0x1a0b2bec1a01f6edU, 0xf5f0c91d0eeef401U, 0xf51ff0ecdf021402U,
  0xf4f619cd392e0a19U, 0x1a460a11130d0421U, 0x10135002fd1d0ee2U, 0x309f1da100f020eU,
  0xb821fb5704d5f501U, 0x350ff1e8ff0c0931U, 0xe7fef4020bf7085bU, 0x15ed8cea5b061afeU,
  0xf0f3c51527810b05U, 0xbe03f51253f319ecU, 0x29ee17f5f7f412fbU, 0xfbe0dc0e055c42fdU,
  0xff0ff739100ffff5U, 0x35fc1108f3c00521U, 0xe90d0401eb0b24eeU, 0x920ece1e7ffe00eU,
  0xf51907cbf2fefdefU, 0xfa0bf6f311f70b15U, 0x34f9f8f9e20a0a1cU, 0x80112fb0b1507efU,
  0x250220f610ec0605U, 0xfabd080a0ede2decU, 0x1bf80ce2172527e2U, 0xe7330d0bd410df0fU,
  0x1b1fbc041b2deb03U, 0xfc15fce2e5ebf419U, 0xefbec1cf8181727U, 0x161d1ff427e90de3U,
  0x72c051e0e120528U, 0x1707f1f51313fe09U, 0x1afb7ffe07de1008U, 0xf9ff09eef6050100U,
  0xf22b0117fb040df7U, 0x504f1fd03f30200U, 0x23fd21f1f6f9ead3U, 0x19080501fff20afbU,
  0x8faf1290710f2f6U, 0xf8c9f909f9ef1710U, 0xfa08e9f9e5f6e50aU, 0xf5ec0e747f0454feU,
  0xfdfc18ff0bef02f7U, 0x23af5fa12f8f7dfU, 0xc0601f7f4041105U, 0xfe25e6f217142a0fU,
  0xa03f72eeefefb31U, 0x3f70205fefe0601U, 0xf2f3edfefe02f4f5U, 0x70913fbffe408f1U,
  0x4090afff0fe2803U, 0x20403038104fc00U, 0xf5feff0afaf7f9fcU, 0xf0b1010fcfdfafeU,
  0x7eb0002f7fb1002U, 0xf80de80b0e00f503U, 0xffd07f6f70013faU, 0xa0bfa08fefb050aU,
  0xfafc030bfaf90bfcU, 0xfcf7fcf508fc0305U, 0x1504f9fb05fafd0aU, 0x609f809fa08f801U,
  0x40b0703fc06f6faU, 0xf7fbff210cfef803U, 0x90a05fbf507fd1aU, 0xace02e8eaf5ef13U,
  0x200b11094b1a2106U, 0x5e3fcd1ea170ffdU, 0x2424ca2baf18190eU, 0xf413500f0919020bU,
  0xf0040214eecbf90aU, 0x7090817f3f12e17U, 0xe20a4210fcf42c4fU, 0x4bfccf810d3f5509U,
  0xfb0b87300fa0fc0dU, 0x63bb0ec4e0ba0b37U, 0xf2291e08f110f6U, 0xfaede6f6f7d9370cU,
  0xf9c426150fea08ceU, 0x900feebfcfc02f1U, 0xf703db16e803e0e3U, 0x1bce2523183e0a3dU,
  0x34ebe7b740f24f2cU, 0xe5180dca30e5010dU, 0xd825092a0201e9dbU, 0x390a0db32f17c651U,
  0x1d4efbf64d133b1dU, 0x150337e8e5d5f636U, 0xd414c00d0c1e0501U, 0x2eeffd02f6f5f027U,
  0x1601be00d16c5e7fU, 0xb9e14cebe7083053U, 0x3dc9eedf1cbc29f2U, 0xe2da16fd3e2be602U,
  0xefc6fec2d5d120faU, 0x24193a1c21be0c11U, 0x120c0a3002fb4bd0U, 0x381fa1c3ce907f2U,
  0xff2ff7ed270604e0U, 0xf7b10af007ea0715U, 0x180ef4f605f904b8U, 0xe8e8e1ded5fe0905U,
  0xb0af72914fbbefaU, 0x1afcf6ef010c1c6cU, 0xf60dc809181ae3abU, 0xe1142319cdf462ffU,
  0xf706edeb02eaeffaU, 0xf2b40000150f070fU, 0xfd29141203091be4U, 0xfcf31203f0190907U,
  0xecf009b8042ddf15U, 0x30306f1eb01f51dU, 0xf805f211fd121a0aU, 0xcf101fa1b00fdfeU,
  0xfb02f907130207f1U, 0xf401fe160506fc08U, 0xecf0f6070bfcf803U, 0xf104050421faf905U,
  0x7fb0e17020df002U, 0xf6530802fef8040eU, 0x2e9150d03c7fd02U, 0xf10204d8050dfdfeU,
  0xff03d3f21008fa01U, 0xf6def902be160afdU, 0x1a028afc0016feU, 0x4fcfcfbfe49fcd3U,
  0x3093fbfe67f08e5U, 0x87fef8f908fefe2dU, 0x503fe0107f4fdebU, 0xdeef0d0209e703f8U,
  0x34f104f3f8fc07f4U, 0xfc0707f501f57ff7U, 0x1fdfefaf3e404f2U, 0x6f0090bfd02fb02U,
  0x800fafd0a0dfceeU, 0xcf00f502fa09fff6U, 0xf6f5f442fafef902U, 0x10e0c13f701f3f8U,
  0x5f101fa0cf40cfeU, 0xfcfc05ff0704fa06U, 0xfe0a11fdf917fee7U, 0x502ed0a0702fdfeU,
  0xf504fe0514000104U, 0x1fa1afbfb04f105U, 0x112b000ef7f2fa2eU, 0x111afbf00d000001U,
  0xec03ff0e0c0905f2U, 0x48e5fd2dfb05f12fU, 0x90f5020fd6fcf3f1U, 0x1f704f521f90405U,
  0xdfc00ec26fb06f7U, 0xfece00fb04f907e2U, 0xf2eff30f07d211e4U, 0xfcfe582616fee802U,
  0xd06f605f8fc00ffU, 0xf619fefe2181ff06U, 0xb05f610fe0aed03U, 0x5f805fefaedb391U,
  0xf50d3c4ff3490e05U, 0xce0b0af70712fb17U, 0xfafff3ff08fb1f14U, 0xffb08f8fbfdfc11U,
  0x117f7110d11fd0bU, 0xf52405011bf70724U, 0x9ef820077ff202d0U, 0x190319f1f007fd0bU,
  0xf70c0ce4f4e80a00U, 0xfe04180f10e5a5f9U, 0x703eefb11ee140aU, 0x1813d5182bf3ea0aU,
  0x70cdef4ebf30305U, 0xcbd000fae9f3080aU, 0x1bf6080705050005U, 0xf5e5120109edee0aU,
  0xfde60611f1e8000cU, 0xfc000df2070e0207U, 0xf04e6f300f21808U, 0x81f1fc0512eef8c1U,
  0xeb0bc8f6fd00d6feU, 0x910f809f202d5fdU, 0xbfdecf8ff040515U, 0x2140e02f7040f0cU,
  0xf8f10216fefe0900U, 0x23fe140809cdf9fbU, 0xf7edf7ef0b0610f6U, 0x6ecf60613fc02eeU,
  0x6f111f0ff03f1f5U, 0xb001b02fefd06ffU, 0xf90f0e00fe1a02f2U, 0xeffcf8e701fa0500U,
  0xe0501fcfc0201f9U, 0x634fe05fafff909U, 0x270813fcfef71dU, 0xf61a0506f0f21effU,
  0xfe0904ec0df70706U, 0xf9d5060705fb0731U, 0x11f9fcf60404fef1U, 0xff080e09f6fcfbf6U,
  0x25f604fcf000d603U, 0xf4fef819fbf40ef9U, 0xdcfee7091dfbec1dU, 0xe4b6f7ebf502fc00U,
  0x91aebe1f9ecfc13U, 0xcfddfbf304ee087fU, 0x2030d00fd01f922U, 0xd5f41bfc0805eb0bU,
  0x1bdd0003f5faf7e0U, 0xf1f405f00bfffa00U, 0xfafc2dfb020cd7fcU, 0x171e031be81004feU,
  0xcf5ea1228130227U, 0xdcfdf62efb0e021bU, 0xadf23205f00fce6U, 0x1305e7dc42fc0a1aU,
  0xb16f4431317f7fbU, 0x27fa2219f4f81604U, 0xe6feeb0def222913U, 0xde0b7721062cbf04U,
  0xf92119060039fe0eU, 0x1b807c9f03e100aU, 0x701fef4f5feea04U, 0xffebf8f1f202af25U,
  0xdeee381f41fef25U, 0xb6f8001c07f2e7f2U, 0xf1f0f20c0f15fffbU, 0x17350ad85805f20cU,
  0xe102cb07d9040617U, 0xc0f09ec03febef9U, 0xe7f9470727f9e3b4U, 0x5ab14ff13f507f8U,
  0x170f081f1bfb4cfcU, 0x81f52423f7e5f1feU, 0xfb160ae5dd1a1817U, 0x230507d433fa0ff0U,
  0xde5ce03180b1f0bU, 0x70800070001edf7U, 0xf003f1f109f6ecf0U, 0x5d10f009ff05310fU,
  0x1f0f92d0cfbd425U, 0x4f43ae000fbd3eaU, 0xe914ca1af94d140dU, 0xcaa4f9e4240bfaf0U,
  0x15f9eec72b2112faU, 0xf5e12bd505e8e620U, 0xe9c2ee093bf3160bU, 0xce03dc0f20edfa08U,
  0xcef5cb5216f6c5f2U, 0xfc0bd301dff4ef07U, 0x1a00ee37db0dc618U, 0xef310726b5fdf5e1U,
  0xe109530d0917f106U, 0xc71401ece1d80a7fU, 0xcf0d2bccf905d640U, 0x3a0ce6feeef0c808U,
  0x423ec958142bf711U, 0xbf123110c0001f9U, 0xeef399da020efa24U, 0xf31efcfc0e1108f6U,
  0xb05e529f0f8f4f1U, 0xff09fefb003c212eU, 0xde03cff70120f90cU, 0xf040714eeeb0c02U,
  0xeff5f1fe0228fe00U, 0xed407000717e3cfU, 0xeb0ede1105f50ae2U, 0x15fef70d81fc37e6U,
  0x5ee1aeb20ecf105U, 0xecdbf8f500ebfb05U, 0x508f4eaf716f305U, 0x40dc06012a020f07U,
  0x37ccfce600fdf113U, 0xfd04010bf11df315U, 0xecfc040df94412d7U, 0x30107fdfd06f2f6U,
  0x2ff81267f225feU, 0xffd2fcf80e81f3e3U, 0xfef9f1f9defdf9e3U, 0x10fbf118fc2d06faU,
  0xfaf3f90203f80204U, 0xf101fe080104fcebU, 0xf1f0ff0c04020900U, 0xe8fa02dd0bfe07f8U,
  0x2f832e9f710fb13U, 0x17fb02fe0a0035ffU, 0xef8f8fd0113fdfdU, 0xf6e3fbff33090403U,
  0xfc11021c08fdfe0eU, 0xfa061efcfff4fb01U, 0xfbfd030bfafcf903U, 0x18f9ffda2f0016faU,
  0xf4e2a0adb03f013U, 0xc7ffcd0fc1c193bU, 0xd7100d092c130741U, 0xed170cec040200feU,
  0xdb11172920e200f9U, 0x2d1007d700fbe450U, 0x409d9121efde827U, 0x300f1202ffcd9efU,
  0xc078b7102a9eff5U, 0xe7c11212e70e0c6bU, 0xf6f4fd11fbedfc1eU, 0x445223f9f4df1e09U,
  0xf9da0df809eeffe2U, 0xe06060d27f40af6U, 0xfd021f0a06de19fcU, 0x717ff011d0b0807U,
  0x2bbf4f61bf80e07U, 0x1b0df802ffeaf4c0U, 0xf90b9f0ef802f720U, 0xaf8ecf30e0e0102U,
  0x100409e5fc0802faU, 0xfd400d00f011fde2U, 0xfd18eff502ef2a3eU, 0xe7f6cf64e502bf1cU,
  0xfd0616fbdb810614U, 0xe50bfff3f2fb060dU, 0xfe2f60efef807eaU, 0x10e6fff2f8f21103U,
  0xe9db096609f0fae0U, 0xfdf6fdf800eaf802U, 0xf601f703fcfaf9fcU, 0xfb6bfafcf20c1810U,
  0xf5b610ee0fffefe8U, 0x12f2f920001408fdU, 0xf904bd15f605253fU, 0xfe0b1922e81de603U,
  0xf90121d3f5a915eeU, 0xe19fd10fae8eed8U, 0x2cc07f1200708fdU, 0x2500e0f3eccbca13U,
  0x6fc922d7f2c1d14U, 0x3260cf4fbf8f0f1U, 0xfd26ff0e06fe0ceeU, 0x60afeff00eb1d08U,
  0xfc1a1dd50f0ef31dU, 0xf01f40af7fafb0cU, 0xc0b10eb0e0c011bU, 0xdf023052018e824U,
  0x18ebede60de51933U, 0x152d2db81452c9faU, 0x3ffe81121f7071fU, 0x3525ffc71a362205U,
  0x1afa191710c71268U, 0xcbac20e724e205f0U, 0xcd9d4f00707f317U, 0xae3dbe612f60902U,
  0x15fef1f6e4321808U, 0x9d073911f0002b18U, 0x493ce22a4b8138e1U, 0xc3cd24402df3fa1bU,
  0xaa9c17fa0d110ac0U, 0xfd2a16f023c5071fU, 0xb37fe060415689eU, 0xde9fb1619f70100U,
  0x112f80a0cfc0c0cU, 0x1007fb0908fb060dU, 0xee20faf313fc0401U, 0xea070a0b12f40806U,
  0xf4fffa14cb22f306U, 0xfa230202faeffe1aU, 0x5e319f8ea06f310U, 0xf303f8c7093304f0U,
  0xfefbcef806f90100U, 0xfae60112be00060bU, 0x605061ef5f98103U, 0xa03f9f003511101U,
  0x7fcf0dcf04e07e5U, 0x6c000f0afc01fdebU, 0x2f1f6fe16f6fa05U, 0x800e7030507fee7U,
  0xfcfec0ff0206f8fcU, 0xfe00f5fafafbedf8U, 0xfdff0503fbef0306U, 0x17f0301ff0109fdU,
  0xf908010206fd02feU, 0x1efd020500f302fdU, 0xf8f8fa12080efd03U, 0x7e80310fef70108U,
  0x90406fdfe0107feU, 0x104feff040909U, 0x603feff0700faU, 0xfefcf815f6000afbU,
  0x40a01fb090603feU, 0xdf17fefaf60102U, 0xfefa030cf7e20402U, 0xfe0609150806c805U,
  0x9f20c12e8d9fcfeU, 0xfdd30bf4eb05112dU, 0x7f85c2b21ea0fcfU, 0xa0581d824f4f413U,
  0x23fc04361a010c01U, 0xa3503e319eb05d5U, 0xf3010a10ea013707U, 0x1100e6c2ed2b0915U,
  0xfe1121d7eaa221e9U, 0xf4ed05fce80802adU, 0x201db0c0504f0fdU, 0xbefa040afbea1f0aU,
  0xfdd50fbc0dffe5c8U, 0xf10a0d33fc17f1f8U, 0x17f71810e2e0ea01U, 0xfdfbfee50d08d704U,
  0x2ee0401f91f0706U, 0xa32ffdb04f2fa02U, 0xdbf315f1e203f5e4U, 0xef01360b0803fbfaU,
  0x25fbfd070decf9f9U, 0xf2501f400f1e2fbU, 0xdde609fc0a7fe5U, 0x1d04ec0f0f0bfcf9U,
  0xfef7271cef1dfcfbU, 0x35ebf50006f6040aU, 0xf50b04fffff0f8f8U, 0x106fa03f9fffb03U,
  0xfca8fcf1fa080b0aU, 0xfd050002f9dd0600U, 0xcfbc2fffbe50b0cU, 0xf9d5f9da00f6d412U,
  0xf9ecddffebdd0a00U, 0xe9f429cbfff2d7d9U, 0x3e19300b0ff8ea00U, 0xf7eff7d8380edc0bU,
  0x1031f2420b3f80dU, 0xdee704e315cb86ffU, 0x466e721ff3bde01U, 0xf7d845dfd6eeda05U,
  0xec022bf2000b151dU, 0xe2b90cea53f614efU, 0x2e2e81b1311fb05U, 0xffe21e0f1581c617U,
  0xeec71fe015e903e6U, 0x19eb17ef0c1cfd08U, 0xb11d807ee0a30ebU, 0x17f801f819f40210U,
  0x1fbd500070b0af9U, 0xf306062118f3f7faU, 0x1fe2708e3070417U, 0xe0cfa0c0305f516U,
  0x10201fb0b0207f4U, 0xefe61af71228ff02U, 0xe503ee15000505ebU, 0x1081f5f019120424U,
  0xf001e210f2e0ff12U, 0xe1f80004f3fe002bU, 0x2090b0409f304efU, 0xdeafb0000f1e405U,
  0x440804f9f1fe0a0cU, 0xf7fc21f7fff80d02U, 0x1a11e91afcf8ea3aU, 0xfd2f0aecfb200c10U,
  0xf5f1fc17ea12f2ecU, 0xf4030ccd020103b8U, 0x1c15020a1505030dU, 0xf1f9252dd904f905U,
  0xdd18ead6f347eb08U, 0xfafb1ef3faee16f9U, 0xfd1b1007f0e613f5U, 0x7f618e3fb5c2d04U,
  0xf8fdeb09ef35fec3U, 0x8f6027ff93e0d10U, 0xdeb0bf606f3f5f1U, 0xfb0bfd05fa0ab648U,
  0xf80916ecf8470105U, 0xc9f2021b28010a33U, 0x40cfaf9011a11U, 0x29eb130f22fdc1f5U,
  0x1509e0fffed80d09U, 0x6cd714e80c28e809U, 0xc13c2ecfffae8f7U, 0x20f7220f12ecdd06U,
  0x3b18fdcaf221d8faU, 0xf11c29f701eefb21U, 0x19f90715b40517d5U, 0x110042dcdedc500U,
  0x34030cfc1014ed00U, 0xfade1ed811fde7d9U, 0xf77fedef100cec27U, 0x81723f914e70e1fU,
  0x11f633e9e0c505edU, 0xf021ea0bf7fbfecaU, 0xe2ecee0d0ae3ddd9U, 0xf702fff8fe630576U,
  0x5f410f6fd004001U, 0x203f70f1b0b10ffU, 0xf9fdfa25fc0301fbU, 0xf603fa1a01f7005fU,
  0x16ffee9fd01fdf8U, 0x15f95af8f400fbf6U, 0xf5f60dfdfd050affU, 0xfb0c0407fefbf47fU,
  0xfd26f60109f1514cU, 0xa02f9f7fdfc18ebU, 0xf7000000f70701f9U, 0x901f6f717fb04fdU,
  0x500fc03fa0200f7U, 0xfd01f40314ff02fcU, 0xf9f20202fffbfe09U, 0x23181b0804282f24U,
  0xfebeee00b002514U, 0xfff32eb904e304c4U, 0x51df7182610f70eU, 0xf7d8fae1ee110714U,
  0x221d1822fafce824U, 0xe3d44eff1404f8d8U, 0xfc1016000ac802fbU, 0x1902e6332ffe311cU,
  0x206630fd3ca39fbU, 0xffdc0c170e21062aU, 0xf21112fd22d6ff04U, 0xeb010f2eff132007U,
  0xd8171a81f70201eeU, 0xf40903e6fbcffe18U, 0x3270304ed16f105U, 0xfc03030f1107fefbU,
  0x3daf20ceae707fcU, 0xf7d8fab60bfa06eaU, 0x6609a1edadeefb06U, 0x3e21feceefc1001U,
  0x1205f62ef1f2ec00U, 0xe9370a04090f6ddcU, 0xf713d6ed081618ffU, 0xef39f1ca7f37f04U,
  0x6099df4f2940d0cU, 0xe9a4eef4fef7f3f6U, 0x9f2f2fdf4fef5fbU, 0x60609ff0309cb0fU,
  0xfb1b114e000b05e9U, 0x2fa0ffbf20d0006U, 0xfe02f814fa06e0ebU, 0xaf1efb37c60ae9f5U,
  0x2fb012f2dbf6d9fdU, 0x3ddbe2d8d6cb0ec7U, 0xbb060f2c42fc07feU, 0xc6f1ed02f8201303U,
  0x3c14daa724b13d0bU, 0x4222ede807b2e802U, 0x72591e326bc0692U, 0x180bf5f0e42313fdU,
  0xdbda71ede6e0f702U, 0xfff0299ece180a2dU, 0xded17c370ac0c281U, 0xf8c8fcfe03e0f604U,
  0xad5407eb13e00ca0U, 0x8dc362741351643U, 0xc0b462718230b67U, 0xa0af600ff01fb01U,
  0x3701fe0b12fffdf9U, 0xfe0102f2f7fedf04U, 0xff0602fbe33802e4U, 0xa14f3f7fafd0635U,
  0x1ffc0bf6f40ff5U, 0x81f3f410fffcfdfcU, 0xca05fe99030204f8U, 0x20301f5ecffe407U,
  0x7fed2ecfeff04f1U, 0xd0f17feff010e15U, 0x1f7f5f8f80d03deU, 0xa01fa0bf808f001U,
  0xf4ecfcf205fe0105U, 0x3f31f05fb1304f6U, 0xfe017efaf5f71aU, 0xf326ea1ed7edfa0dU,
  0xfbe5e512c704ed0fU, 0x606f7fbf8fb097fU, 0x4107090007e31732U, 0xde11cc607f3f6fbU,
  0xa60806e016e41ae7U, 0xda3a0ef608063eddU, 0xf9e4f0fb34f9d6e8U, 0x21d5fb0dcc2a280dU,
  0x32c4303f71a0cfdU, 0xd6e3fc18ef04d335U, 0x810021ffa071301U, 0xef0926fde7e7f629U,
  0xf9052ff90cfef7f9U, 0x12ff2600fae9f70aU, 0x2f7bc1905fe07f4U, 0xfb3602f1dff5ef0cU,
  0x2fbff080f0e02ddU, 0x4e1010c0517fb23U, 0xd40f26fb2204fa15U, 0xfd02070de1ff0300U,
  0xe0afb211ef50503U, 0x2ac010e0af6efcaU, 0x105ec04fe4008d9U, 0xf5067f2c43f6c708U,
  0xfb0e64f8fe130106U, 0x1d5803fc9c0b0702U, 0xf40308f1020eef04U, 0x1f6fd080a9bd600U,
  0x5fa03df0d2e2508U, 0x503010801fa160aU, 0xefb010302fcfb1aU, 0xcbc2dece08d918baU,
  0xf2d83f1ffdddd315U, 0x1ce8bd28d11218e2U, 0xb30e4e12f51aebf7U, 0xd408f87a17ec07b8U,
  0x44d402defd0150bbU, 0xff32bcefc22ab501U, 0xd1ce0ef3e42300e4U, 0xd40e9e4f810cf1c9U,
  0xfbdd15100da3e6b5U, 0x2eb7c4fddc0be2e4U, 0xdef5ed2bb82c1f25U, 0xeeddb4b8d8db28e0U,
  0x420e00e4f323001cU, 0x4ece719f4e201fdU, 0xdebedde6fbeae511U, 0x9d80e0d1ffdfd03U,
  0x14f0fa2ae9121901U, 0x33dafee11a1df90cU, 0x281c7fe1ad010340U, 0xfdf403d7ff06f5ffU,
  0xc205e9a4f0e20812U, 0xd1702f703163301U, 0xbeefd08d31efab0U, 0x17fe328fdff01cf2U,
  0x2e2fc2c130f0ff5U, 0xd146f30f17231e92U, 0x31d0efef3ee0cedU, 0x251aebfc0513befcU,
  0xe93dea91e9300af1U, 0x190302ff43060409U, 0x603c9e51c8ffed4U, 0x4f906e4000009f7U,
  0xfa060ef5eef7efedU, 0xe06f9fe07f80505U, 0xeee1ec0ad0050510U, 0xfa0708bf0505f6U,
  0xfafcf1d3ecf30b01U, 0xf7fef3f30409f2f4U, 0xced14f202ee01feU, 0xf00befaf5ee1505U,
  0xcecfc0800d60200U, 0xfa2508810923f9f4U, 0xf518fd1206fcfcfdU, 0xfe050c0208121844U,
  0xfc17fb5906f50df9U, 0xc00b00f9f701fcf1U, 0x40608062bf90010U, 0x16f9e9e90ff0150aU,
  0xf53ad02509f00f51U, 0xfddde7ebf20a0cefU, 0x2ee4e1012ee5e7e8U, 0x42f809214716ed15U,
  0xe31732d103ff04d0U, 0x937324d3f6083731U, 0xdd3fda1d2df328faU, 0x7ff73df83237dc15U,
  0x145337ffff062126U, 0xfe2de7f3f4142937U, 0x43dc0112cdff0e14U, 0xd40028d47802c99eU,
  0xad4e5d5e2cf244cU, 0x20f7dc10f20e28d8U, 0xeee4d3db0c1205d1U, 0xf0ad13001437ecfeU,
  0x19f1efc81fe21f05U, 0xebef060719001507U, 0xc21dfb27f7ebeee7U, 0x150340fafaf90424U,
  0x3e13f0d62b1f2416U, 0xf1419eb0810ba07U, 0x110cf30ef422f0eaU, 0xd71ced810ddc050eU,
  0xe11613fdf93507e7U, 0xfb90523bd3111faU, 0xcfbfee9fdfae223U, 0xfef806fd1bc5a610U,
  0xe2c013b3e821ffeeU, 0xe0f2f8071e0e001aU, 0xeee903fdf001f705U, 0xe85d47ff93071bfbU,
  0x20cfd0ace0ba124fU, 0x2a6eff1dbf4f05fU, 0x12e5f3f7cbb1e979U, 0x93a4a0285dc6caf5U,
  0xe5edcf494cf748d4U, 0xac78ea31cdf20b11U, 0x5310eaec031153acU, 0x920720f2660338f7U,
  0x131fe93cef7fe70aU, 0xaf3de02216ef2bb6U, 0x9d40b9cbe2d1d8e7U, 0xe7d7f201100ea725U,
  0xcda4ec4313f507f1U, 0xee925fc19f422d5U, 0xecf82e3401fba6c5U, 0xfdd2073320f90efcU,
  0x15e903ea06e81f13U, 0xf868f80fd0151101U, 0xe40800f5f404e7a3U, 0xe705bdb009f401fdU,
  0x20408380320c7eaU, 0x18c21908ea03e105U, 0x1b02010cfe05c700U, 0x101cc21d811e12e7U,
  0xfa051c0df75af51bU, 0xfd01ef0ee71315fcU, 0xfae8ccf8eef902feU, 0x3e1203f9fef2fefaU,
  0xf9e6fc39010f0af3U, 0xf5f6080d01fc04ffU, 0xebf713fa010bd312U, 0xae2b222609f2edf8U,
  0x280a0408efc709f6U, 0xdf11e9340df2010fU, 0xfce6120eee1de3fcU, 0x2515ff140401dc23U,
  0xef0ffee141de3adeU, 0x1aeafde1071999d5U, 0xf1370602c7a10afdU, 0x10109ec2003ff14U,
  0x8130ecfaf91920e2U, 0x19bfe6bd0a28f902U, 0xbde7eda3e501d61dU, 0xe22a37231cf0002aU,
  0xf624372a21e0d904U, 0x50a40cfc250a3a10U, 0x9aeebed6a5fef615U, 0x6f8f2810204fefdU,
  0xfd05de01f80303U, 0xf8df0423fa07fb2eU, 0x79fee417020103f8U, 0xfbf5f89bfdfe0501U,
  0x6020bf4de180903U, 0xaf5050407079500U, 0xfefa01040ef01110U, 0x703001bf103f700U,
  0xcfef5f9fa050801U, 0xf5f502ed03eefaf6U, 0x2fd0bff06ff02f9U, 0xfbf8fa05fc0f04fdU,
  0xf803fcf714fff3U, 0x1205030d050af1ffU, 0x8fc0600f40c0d16U, 0xcfcfdee04fc0cfeU,
  0xf1fa06171a5900faU, 0xd0a020201fdf91bU, 0xc0607f6e508dbf5U, 0xe610c31e0405f2f6U,
  0xaf7effff105290eU, 0xf0000fefafd0ee9U, 0x9f605020012130cU, 0x7f03ed050e07090bU,
  0x9ef23fc08ff08feU, 0xfaf4f9fa00fe05fdU, 0xf70cd0060f0e17faU, 0x130df600f2f40801U,
  0x6faf0030bf108U, 0x70604f60904edfaU, 0x2050909ffe707f4U, 0x28a1b70d340fd132U,
  0xf90c03f3e22203feU, 0xb6dd17111aeceb0cU, 0x609220f2e04b1ecU, 0xc9f8300e0de1e133U,
  0x1a2a09210b2917f6U, 0x207f3f01eafb021aU, 0xf5fce41bdcd415f1U, 0xc8f6fd06d017d418U,
  0xf00fcbe109141e2cU, 0xe0ef708f60f130aU, 0xc831bdcf9faa4e0U, 0x1f19feed1301dbebU,
  0xf30ae4f0f1eb15ecU, 0xd4fff2f9f803020aU, 0xb082bf02c0cf0e6U, 0xfb03e614acd098e4U,
  0x18dfe5a307ee060fU, 0x2040832e51fd551U, 0x94e3e0071af70512U, 0xe4fcc6c2f4f0d5f9U,
  0x2d23ea0920000fd7U, 0x192cf2f3ecd497baU, 0xda0d0e17180e4081U, 0x300c8f38f2adfeaU,
  0xd4305dd8fecae11bU, 0x43c4edf7eaebe425U, 0xf9d9d9f1f2db0401U, 0xd501e2eef9ec1be5U,
  0xd8fefefd35270cd5U, 0xeeef3339f4e40bf8U, 0x17fd014adaff1529U, 0x13d1f717170d0419U,
  0x7ddebe61e140afaU, 0x10103b031de1e501U, 0x504f2061404f60dU, 0x19f102be074af32eU,
  0x1937052c0997fb18U, 0x12d82fd41fe2ec08U, 0x1b681f910f80e13U, 0xcd1de0df1fafd1aU,
  0x1e1cd206de2e2f2cU, 0xbf3c231409121733U, 0x4409e1141dba23e5U, 0xd2e1282b17d5f409U,
  0xe4f82beb05ee0ee2U, 0x1b111af00e941905U, 0x4352a28140f1ec5U, 0xf2c60920feeffffbU,
  0x27eb28eaea16ed0cU, 0xf4091515feddfebbU, 0xf7ed1441070317U, 0xfad207e40720071fU,
  0x4081d0713f9e71dU, 0x7fe9270729cae82aU, 0xc0daba03111901faU, 0x259b04f659c2f80bU,
  0x240c22ffdb112309U, 0xf015250d0b055e1bU, 0xf908291a01de25daU, 0xdad64109e8f81812U,
  0x72406d106fa29e1U, 0x1fdd0fd304da16efU, 0x2420f5541bcdd3ebU, 0xce30928aafd4bf0U,
  0xf01d5d448f12025U, 0x2103f9dcf1fe1804U, 0xf915d5ea61f8f2bcU, 0xece1edd8461efd1aU,
  0x14f4eb47f5fc9a05U, 0xe5280bc1030ff338U, 0x15f5f6157507f00aU, 0xef191ee4e63c2bf3U,
  0xe32d340aec40fb46U, 0x1340fe0110062112U, 0xf516fd0cf11b2612U, 0x3da3812ee0f2a0bU,
  0x58100d9fa10e3f1U, 0x1dffea0df502e1f2U, 0xfc073425150ef7faU, 0x9dffe041b0e16fbU,
  0x900f62c08f9eaU, 0xfae6f7e8fd0f11ecU, 0xee31067fdb0903d3U, 0xf6dcf9eae4090dfaU,
  0xe1521130aed110cU, 0xfb0aeffaf8edeb1aU, 0x8ec08fbffe0fbdaU, 0xf51cdafad820a313U,
  0x517fcea0701f103U, 0x60bed5ee7491b27U, 0xf71b1308ef0ffb20U, 0x38dc060842eef44bU,
  0x172456c40af61800U, 0xdb0cf61212f70942U, 0x6f8fa02fced2d23U, 0xbafb02e324b4e4b8U,
  0x1c02ef211519c9feU, 0xf24dd069e96c4fe1U, 0x440719e80400d458U, 0x164ef119c7d8f5c9U,
  0xd5d810fef01913e8U, 0x5cb9c302f7072b1cU, 0x27effad705ca57d9U, 0x297f2ff138f2f2e0U,
  0xf9fed9fcf8d8a3feU, 0xaf24dafc2501e9ffU, 0x14e1f7fbcf17f3e2U, 0x3df1f1d5fb30db1aU,
  0xb4cc0db4f0e30218U, 0xc5d9e6dd02fdff10U, 0xfcd3720effbf33e5U, 0xedbec37f4e9dff7U,
  0x242dfe272321e206U, 0xf140bf9f7eb0fcdU, 0x5f46bea6ae6e730U, 0xf1083d9b1f1ff91fU,
  0x3617f6dd17dd1800U, 0x3a030d120aa1091eU, 0xc8eae3200a1e1c56U, 0x4981fe11c41c0e1cU,
  0xa23e9e91345cf0fU, 0xe8f7061bf11d24beU, 0xeaff1609fbb112a5U, 0xd6fb28e6f2efe700U,
  0xde1000440d16fbfbU, 0x7d607bf2748eb1cU, 0xe10144c1cc0faeaU, 0xfb010101060300faU,
  0xfa03f901fce2fd0aU, 0x909fcfe0502eff6U, 0x4fa0d04f9f011f3U, 0xd3f5fbf30204ce06U,
  0xfcfbfff7f3fd0208U, 0xf9ff07fc43f0f401U, 0xf500fdfff9fb0efbU, 0x204fef612f6f9f5U,
  0x13f907fb00080e00U, 0xf6fc04ef00100406U, 0x1d051bfafc06f9f3U, 0xfcff070f0bfefb01U,
  0x805f4f406011101U, 0x5f90205fbf8f2fcU, 0x810c040b08060519U, 0x5b1bcffffce6e500U,
  0xda1c0104140114ddU, 0x11f10c1af815fe14U, 0xd716040ce919fafdU, 0xe205f106f6f7c404U,
  0x5e7e006db12f6e8U, 0xffe12f0e90203d5U, 0x10e1110515150707U, 0x141802fc0df609f2U,
  0x20430bfcec1613eeU, 0x15e80a17f9dbf8f9U, 0x24ebf3fe0204d11fU, 0xfb14d1e9f6f9fc0cU,
  0x30004eed7e81e0eU, 0xcd7f1b041200e912U, 0x341af80a2efbf30aU, 0x150b10fbf6fa08f3U,
  0xee0af51a3f7f0bfeU, 0xfae7ef041ff2efe2U, 0xe6061eefb7005f46U, 0xffff4f17fb14fb05U,
  0xb900ec20e6dc17eaU, 0xfd0209ff011cf0fdU, 0xf7ec120911f2061fU, 0xf2f0f70e45143dfbU,
  0x19e6ee33efeddc0bU, 0xf9eef4fd04ee2e01U, 0x14f774fbf6ef010bU, 0xc9d700fd2905db0dU,
  0xe4f40003f5f02dfdU, 0xeeff050ce2eb1fefU, 0x1401e22efacf103aU, 0x11dde911eff7ca08U,
  0xfbfbe70bf9e11cefU, 0xecf215ccf9f6f2e6U, 0x81fe171137f5fc04U, 0xfff7faec2f1aea0aU,
  0xfb001f370824f21bU, 0xfbfd02f517ce4000U, 0x8cad708f9f6ea0bU, 0xefe849f0f6f9f10bU,
  0x15f916f3eef70425U, 0xf4af18ee81ff121cU, 0x6c2ee2d100500f1U, 0x5f520110c58cebbU,
  0xe5c3ebe0fb4504e5U, 0xea0722e8081504efU, 0x131bf4071c0500f0U, 0xdcd04ee02fb09ffU,
  0x3effbfb81f81201U, 0x32000f71266ee2dU, 0xe80b11fe2ef9f2e4U, 0xf4f50703f924020cU,
  0x13fd00010afdf00bU, 0xe2eaf7fdfdf7e41aU, 0xec04fc0d0711fcd9U, 0xeb10eff708ede403U,
  0xf20ed310f3a90302U, 0xfc2012fff10e3500U, 0xfffbf8f8ff010705U, 0x93a000208f918e0U,
  0xfed4f8de0d1a0922U, 0x11fb14ecf8c601feU, 0xfe0312fe070c71f7U, 0xecc021410291420U,
  0x4c1ed13430a14f8U, 0xf53721f80a11da22U, 0xed04f00f20f111cdU, 0x54f1ddc60c40190eU,
  0x283c1afe36cc0238U, 0x6f135f428d1f204U, 0xc7ca81071d0d0314U, 0x15d9f3e9001dd00cU,
  0x811c302ddf92926U, 0xb71935f9e1fd4d29U, 0x281f080834960be6U, 0xe6cf3c29f5e012f7U,
  0xe0f613f60bd90cebU, 0xcfb39ff64a40cfcU, 0x9201c1a12e636e1U, 0x3316210d002219ffU,
  0xf8c8fbe23405f4d3U, 0xf90218e4fdbef1f0U, 0x933e5170ffc18feU, 0x2901f9c3e03cee03U,
  0xb153c03e486e61cU, 0x2ae0bd70bbfe8cbU, 0x389810624042019U, 0x7d3c6203b070616U,
  0x7220216dae32b4cU, 0xda293706d4eb0939U, 0x135a042932b615eeU, 0xcee74a21f4fc3901U,
  0xd80a192929291bdcU, 0x2a02330afea3fd16U, 0x82bf92306fd07f4U, 0xfff8050105f704f1U,
  0xfa017fee03fcfffcU, 0xfa05fb08fbfce3f5U, 0xfdf702f50efdf7U, 0x38effffff020fffU,
  0xfb1f0401fdfd0500U, 0x17fcfafc06e6fe07U, 0x1ff7faf7050af402U, 0xc401f9fe0100edU,
  0xfdf903fcfdfcfefcU, 0xf30d13fc00020efdU, 0xfff90001f70c040dU, 0xf3f9fdf203fffbffU,
  0xf5fc02f607040508U, 0x2fd36f106040702U, 0xf2f8f71affd801e6U, 0x27e0e224000e0a0aU,
  0x3f1f5ed33fef90fU, 0xeeeb0901160cf021U, 0x61c1ee8170a9aU, 0xe8f772ce360b161aU,
  0xc40be11d0c151c29U, 0x2bfa0aea050ef802U, 0xdc182a170cf54aecU, 0xe926cccf30016b13U,
  0x3186ce7a081e50bU, 0xe84302f7f2f41417U, 0xf11bf3fb0d06fe1bU, 0x1bbb0c05f1edeb01U,
  0xf9d5022903f105b0U, 0xf0f7ffd70707f7f0U, 0xd1c1213d80c1f07U, 0xf9fdf5e43b1524f9U,
  0xee0f10ff1bf4fde6U, 0xfdf3f515301a000aU, 0xfaf61c09e7f2f5edU, 0xc6d5d91c1a0510f6U,
  0x17fefaf213f91efdU, 0xf0080cf0d511090cU, 0x22813fbf11901fcU, 0x111fe001f503fff9U,
  0xffe3091400ec18ecU, 0xebf4f0f2fa0606e9U, 0xde07fbf7fa0ef7edU, 0x120deff8020406e1U,
  0xe16fcee0614050aU, 0x206088105ec09f9U, 0xe901090401022e4cU, 0xdfde7743040d1c0fU,
  0x503282ae802fd03U, 0xccfce1f635f2d8U, 0x2f0c050c7f3ce8d5U, 0x38363ce906d82df3U,
  0xcd9f210dbe93721U, 0x65da1f08db0914d7U, 0x2ccc22e8d00e14e3U, 0xf0efe16213985d5U,
  0xf403ded50cf513c0U, 0xffff010fe12be40eU, 0x5f2afff50bdb0829U, 0x9f7dc36fae4cad5U,
  0xdeecf5d20b11ea0fU, 0x1f097ac4dc0de8e7U, 0xbb1908effe08f904U, 0xcff0b04ff0301f2U,
  0xdf80dfffe020403U, 0xfdfd01fc010108faU, 0xfc0503001405fb02U, 0x1ff00fbfc060205U,
  0xfe1004fcffff03f9U, 0xe03f90304fcff03U, 0x3000102f802ff03U, 0xfffffcfafd0203feU,
  0x104fcfd0206fd06U, 0xfafc81050202070cU, 0x8f5ff0210f800fdU, 0xfcf8f7050001fff4U,
  0xfa0202020a060005U, 0x102170803f600ecU, 0xef060406fffd02feU, 0x3d0b191ff9ff42f9U,
  0xdf909f11e54f010U, 0x7f0ceb1d06111427U, 0x10f00d2a32e92704U, 0x2702f7f313e8f6faU,
  0xedeefe22ffd10ae0U, 0xbebf8e2f3181efeU, 0xf9a2efecc346143bU, 0xcdd6de18b4110ef7U,
  0x68fafa08e6c1fc12U, 0xec3616010a092e09U, 0xfc50142a06f61bf0U, 0x1fd9fdfcf8f21e1bU,
  0xf2142831cd2128e5U, 0xe651f1ed090a06e2U, 0xe3f12419031d30f4U, 0x11a6feef00fcf8f2U,
  0xfebe06154ccd14f6U, 0xcf10104fade0c0cU, 0xbcf303f3c8f8f132U, 0xee0cd229fe0c000eU,
  0x6f9f3bf18cb2dffU, 0x1bda0c0b0a0dbe34U, 0xf4cacbfe0d0fd82eU, 0xcef2f3e2e60dfe12U,
  0x51d5a26d709fd10U, 0xf5f40002e7ff290aU, 0xf50fe7ef05f4f7ceU, 0xe3d6fdfbf4e6ce0fU,
  0xefe4fdfcfd150496U, 0xf8000b040b81050dU, 0x7021532f11e1f1bU, 0xeae70cd213fc0803U,
  0xdeff704f0f5fcffU, 0x12fefb05080ffcf7U, 0x129fb01eefd0af7U, 0xf70d030b0ffc0507U,
  0x60b0b0812e40c09U, 0xf33a0cf200fadbffU, 0xfe45120ffd0f0003U, 0xf505fce2f4171f02U,
  0xe30a01f9141402faU, 0xf9ec042a3c2f02e8U, 0x30e054a02f78100U, 0xeea0af605b9e9bbU,
  0x30b25d002d8fde6U, 0x12def8fb02030d56U, 0xececf7f691f51403U, 0x1df1f8eadd1ef000U,
  0xff302b3180dd8feU, 0x95be91eb8f8f40dU, 0xfa06ffdaeb02110bU, 0xea00f9f107ef04f8U,
  0x8516f514fce005fcU, 0x49f9e316cfee09e8U, 0xdfe9e5eb090b7fe7U, 0xe9fae201ac1b19e9U,
  0x17e53fffe96e03f3U, 0xff181318ec0d0832U, 0xf7eecdedfdedf6c7U, 0x3bcdf3ebf4f00910U,
  0xedccfafdfc19060eU, 0xf81322e5fa16140cU, 0xdaf2db18f8ee0596U, 0xf6fee20201ea17ceU,
  0x14f7050907f693e9U, 0x510f516db04050aU, 0xebfee517fb13f3f7U, 0x281f0908f4fe20b9U,
  0x20e00107fef21b05U, 0x2205be190f13e616U, 0x1afd08f7f90f0824U, 0xd14ed13e1d814d3U,
  0x381f4070e12e3f2U, 0xf0fcfef2fdf1ee1fU, 0x2d01f100fb070a10U, 0x1b0009fd81fbf406U,
  0xfe0a08260a03f912U, 0x1827dec1e605e810U, 0xfdfaf2031109ffe6U, 0xee0c0ffff305fe03U,
  0x2f60002fb02f6U, 0xb8f7061bfe05fe2dU, 0x10180f15ff00f703U, 0x30801161607fd03U,
  0x3fd15f0fbfe0c01U, 0xf7d203f80102bbeeU, 0xf908fa0209040ef3U, 0xf9fe2c1228fbd603U,
  0xf504160305010208U, 0x9f481e50ffefaU, 0xd6f604f8ff0805U, 0xff06fb050334e8c4U,
  0xfbfefb690ae806ffU, 0x15eb0af50306046bU, 0xfd03fdf9c8ff0ff3U, 0xfb0201e9180f14ffU,
  0x1405eb1a1cf70ffcU, 0x3d1010eb304011aU, 0xfd0708f800ef01e3U, 0xf4f901310009140aU,
  0x1000ff0616f71406U, 0x2a1707fdfdf7fa00U, 0x210fbeb02180500U, 0x234efec2001fafcU,
  0x1fb17fef8f21cf6U, 0xf8f40409f70e081cU, 0xf80a01f803f8f9e3U, 0xf1f7ff0ffefe04f9U,
  0xec12030417020cf3U, 0xfe080e3e0b0c0ef9U, 0xe006fb1af6ec0981U, 0xbfc0cf78505e920U,
  0xff0efefa2708277fU, 0xebfdf2cb03e8efccU, 0xfd57ec6c10eb15eaU, 0x2e0005e63843eb22U,
  0x516d123aec9ffeU, 0xcc16f403f80041U, 0xef23eef1eb0ae24dU, 0xf50de6fa1a382002U,
  0x162ac8400cb517fdU, 0x31f43f0f1656451eU, 0x2b0d185911014817U, 0x17270604d21d07b4U,
  0xfbe964e802d52af8U, 0x4e282ad538fd2305U, 0x3f5070e680dd8b1U, 0x480cb7f7f7f606feU,
  0xe502212d0514fefdU, 0x54e700ffeefd29efU, 0xb7f40912fa0600e4U, 0xc1e10edc42032004U,
  0xe7f6111be949cde5U, 0x3124e11d0e144010U, 0x6b9e408e233f1c4U, 0x707fffbe6f6e0f6U,
  0x24f2af080f08e723U, 0xc0a24db28bdf0efU, 0x1821f62b1f08d023U, 0xd305ffedebdbe50aU,
  0x1dfe11f0c97f0bf0U, 0x32510d1e160cfeaeU, 0x25f3010d03e3e60bU, 0xf9ff09fb020009fcU,
  0x601060904810201U, 0x706fa00fc03fd07U, 0xf8f706fafaff1afbU, 0xfc05e11603fe1bffU,
  0x401f80011fa0ef4U, 0x6fe03070a030af8U, 0x30903fef50d0e00U, 0x1d09f30100ff0809U,
  0x3f8090100040306U, 0xfffe0603fc0505faU, 0xf011510af803fc00U, 0x607020301fffbfcU,
  0xfd03fef50102fef6U, 0xfb0006fa0203e9f8U, 0x601020305fa0113U, 0xfc22f6fb3ff5d7f8U,
  0xf7d5d20ff3a31ff4U, 0xeef3311518d501U, 0x2f120d0278bed621U, 0xf5dfe71a1b07da03U,
  0xc51f085c233b05e4U, 0xdff105d302dc1b0fU, 0x4f8de0dfddee70fU, 0xa1dbe01381e0f216U,
  0xbd0bdfd8f83b0731U, 0xdae6fe09011c095eU, 0xe811b2fbf6f805d6U, 0xb3daf4faf8f035f5U,
